{"version":"1.0","truncation":null,"padding":null,"added_tokens":[{"id":100256,"content":"<|extra_id_0|>","single_word":false,"lstrip":false,"rstrip":false,"normalized":false,"special":false},{"id":100257,"content":"<|endoftext|>","single_word":false,"lstrip":false,"rstrip":false,"normalized":false,"special":true},{"id":100258,"content":"<|fim_prefix|>","single_word":false,"lstrip":false,"rstrip":false,"normalized":false,"special":true},{"id":100259,"content":"<|fim_middle|>","single_word":false,"lstrip":false,"rstrip":false,"normalized":false,"special":true},{"id":100260,"content":"<|fim_suffix|>","single_word":false,"lstrip":false,"rstrip":false,"normalized":false,"special":true},{"id":100261,"content":"|||PHONE_NUMBER|||","single_word":false,"lstrip":false,"rstrip":false,"normalized":false,"special":false},{"id":100262,"content":"|||EMAIL_ADDRESS|||","single_word":false,"lstrip":false,"rstrip":false,"normalized":false,"special":false},{"id":100263,"content":"|||IP_ADDRESS|||","single_word":false,"lstrip":false,"rstrip":false,"normalized":false,"special":false},{"id":100264,"content":"<|im_start|>","single_word":false,"lstrip":false,"rstrip":false,"normalized":false,"special":true},{"id":100265,"content":"<|im_end|>","single_word":false,"lstrip":false,"rstrip":false,"normalized":false,"special":true},{"id":100266,"content":"<|extra_id_1|>","single_word":false,"lstrip":false,"rstrip":false,"normalized":false,"special":false},{"id":100267,"content":"<|extra_id_2|>","single_word":false,"lstrip":false,"rstrip":false,"normalized":false,"special":false},{"id":100268,"content":"<|extra_id_3|>","single_word":false,"lstrip":false,"rstrip":false,"normalized":false,"special":false},{"id":100269,"content":"<|extra_id_4|>","single_word":false,"lstrip":false,"rstrip":false,"normalized":false,"special":false},{"id":100270,"content":"<|extra_id_5|>","single_word":false,"lstrip":false,"rstrip":false,"normalized":false,"special":false},{"id":100271,"content":"<|extra_id_6|>","single_word":false,"lstrip":false,"rstrip":false,"normalized":false,"special":false},{"id":100272,"content":"<|extra_id_7|>","single_word":false,"lstrip":false,"rstrip":false,"normalized":false,"special":false},{"id":100273,"content":"<|extra_id_8|>","single_word":false,"lstrip":false,"rstrip":false,"normalized":false,"special":false},{"id":100274,"content":"<|extra_id_9|>","single_word":false,"lstrip":false,"rstrip":false,"normalized":false,"special":false},{"id":100275,"content":"<|extra_id_10|>","single_word":false,"lstrip":false,"rstrip":false,"normalized":false,"special":false},{"id":100276,"content":"<|endofprompt|>","single_word":false,"lstrip":false,"rstrip":false,"normalized":false,"special":true},{"id":100277,"content":"<|pad|>","single_word":false,"lstrip":false,"rstrip":false,"normalized":false,"special":true}],"normalizer":null,"pre_tokenizer":{"type":"Sequence","pretokenizers":[{"type":"Split","pattern":{"Regex":"(?i:'s|'t|'re|'ve|'m|'ll|'d)|[^\\r\\n\\p{L}\\p{N}]?\\p{L}+|\\p{N}{1,3}| ?[^\\s\\p{L}\\p{N}]+[\\r\\n]*|\\s*[\\r\\n]+|\\s+(?!\\S)|\\s+"},"behavior":"Removed","invert":true},{"type":"ByteLevel","add_prefix_space":false,"trim_offsets":true,"use_regex":false}]},"post_processor":null,"decoder":{"type":"ByteLevel","add_prefix_space":true,"trim_offsets":true,"use_regex":true},"model":{"type":"BPE","dropout":null,"unk_token":null,"continuing_subword_prefix":"","end_of_word_suffix":"","fuse_unk":false,"byte_fallback":false,"vocab":{"!":0,"\"":1,"#":2,"$":3,"%":4,"&":5,"'":6,"(":7,")":8,"*":9,"+":10,",":11,"-":12,".":13,"/":14,"0":15,"1":16,"2":17,"3":18,"4":19,"5":20,"6":21,"7":22,"8":23,"9":24,":":25,";":26,"<":27,"=":28,">":29,"?":30,"@":31,"A":32,"B":33,"C":34,"D":35,"E":36,"F":37,"G":38,"H":39,"I":40,"J":41,"K":42,"L":43,"M":44,"N":45,"O":46,"P":47,"Q":48,"R":49,"S":50,"T":51,"U":52,"V":53,"W":54,"X":55,"Y":56,"Z":57,"[":58,"\\":59,"]":60,"^":61,"_":62,"`":63,"a":64,"b":65,"c":66,"d":67,"e":68,"f":69,"g":70,"h":71,"i":72,"j":73,"k":74,"l":75,"m":76,"n":77,"o":78,"p":79,"q":80,"r":81,"s":82,"t":83,"u":84,"v":85,"w":86,"x":87,"y":88,"z":89,"{":90,"|":91,"}":92,"~":93,"¡":94,"¢":95,"£":96,"¤":97,"¥":98,"¦":99,"§":100,"¨":101,"©":102,"ª":103,"«":104,"¬":105,"®":106,"¯":107,"°":108,"±":109,"²":110,"³":111,"´":112,"µ":113,"¶":114,"·":115,"¸":116,"¹":117,"º":118,"»":119,"¼":120,"½":121,"¾":122,"¿":123,"À":124,"Á":125,"Â":126,"Ã":127,"Ä":128,"Å":129,"Æ":130,"Ç":131,"È":132,"É":133,"Ê":134,"Ë":135,"Ì":136,"Í":137,"Î":138,"Ï":139,"Ð":140,"Ñ":141,"Ò":142,"Ó":143,"Ô":144,"Õ":145,"Ö":146,"×":147,"Ø":148,"Ù":149,"Ú":150,"Û":151,"Ü":152,"Ý":153,"Þ":154,"ß":155,"à":156,"á":157,"â":158,"ã":159,"ä":160,"å":161,"æ":162,"ç":163,"è":164,"é":165,"ê":166,"ë":167,"ì":168,"í":169,"î":170,"ï":171,"ð":172,"ñ":173,"ò":174,"ó":175,"ô":176,"õ":177,"ö":178,"÷":179,"ø":180,"ù":181,"ú":182,"û":183,"ü":184,"ý":185,"þ":186,"ÿ":187,"Ā":188,"ā":189,"Ă":190,"ă":191,"Ą":192,"ą":193,"Ć":194,"ć":195,"Ĉ":196,"ĉ":197,"Ċ":198,"ċ":199,"Č":200,"č":201,"Ď":202,"ď":203,"Đ":204,"đ":205,"Ē":206,"ē":207,"Ĕ":208,"ĕ":209,"Ė":210,"ė":211,"Ę":212,"ę":213,"Ě":214,"ě":215,"Ĝ":216,"ĝ":217,"Ğ":218,"ğ":219,"Ġ":220,"ġ":221,"Ģ":222,"ģ":223,"Ĥ":224,"ĥ":225,"Ħ":226,"ħ":227,"Ĩ":228,"ĩ":229,"Ī":230,"ī":231,"Ĭ":232,"ĭ":233,"Į":234,"į":235,"İ":236,"ı":237,"Ĳ":238,"ĳ":239,"Ĵ":240,"ĵ":241,"Ķ":242,"ķ":243,"ĸ":244,"Ĺ":245,"ĺ":246,"Ļ":247,"ļ":248,"Ľ":249,"ľ":250,"Ŀ":251,"ŀ":252,"Ł":253,"ł":254,"Ń":255,"ĠĠ":256,"ĠĠĠĠ":257,"in":258,"Ġt":259,"ĠĠĠĠĠĠĠĠ":260,"er":261,"ĠĠĠ":262,"on":263,"Ġa":264,"re":265,"at":266,"st":267,"en":268,"or":269,"Ġth":270,"ĊĊ":271,"Ġc":272,"le":273,"Ġs":274,"it":275,"an":276,"ar":277,"al":278,"Ġthe":279,";Ċ":280,"Ġp":281,"Ġf":282,"ou":283,"Ġ=":284,"is":285,"ĠĠĠĠĠĠĠ":286,"ing":287,"es":288,"Ġw":289,"ion":290,"ed":291,"ic":292,"Ġb":293,"Ġd":294,"et":295,"Ġm":296,"Ġo":297,"ĉĉ":298,"ro":299,"as":300,"el":301,"ct":302,"nd":303,"Ġin":304,"Ġh":305,"ent":306,"id":307,"Ġn":308,"am":309,"ĠĠĠĠĠĠĠĠĠĠĠ":310,"Ġto":311,"Ġre":312,"--":313,"Ġ{":314,"Ġof":315,"om":316,");Ċ":317,"im":318,"čĊ":319,"Ġ(":320,"il":321,"//":322,"Ġand":323,"ur":324,"se":325,"Ġl":326,"ex":327,"ĠS":328,"ad":329,"Ġ\"":330,"ch":331,"ut":332,"if":333,"**":334,"Ġ}":335,"em":336,"ol":337,"ĠĠĠĠĠĠĠĠĠĠĠĠĠĠĠĠ":338,"th":339,")Ċ":340,"Ġ{Ċ":341,"Ġg":342,"ig":343,"iv":344,",Ċ":345,"ce":346,"od":347,"Ġv":348,"ate":349,"ĠT":350,"ag":351,"ay":352,"Ġ*":353,"ot":354,"us":355,"ĠC":356,"Ġst":357,"ĠI":358,"un":359,"ul":360,"ue":361,"ĠA":362,"ow":363,"Ġ'":364,"ew":365,"Ġ<":366,"ation":367,"()":368,"Ġfor":369,"ab":370,"ort":371,"um":372,"ame":373,"Ġis":374,"pe":375,"tr":376,"ck":377,"âĢ":378,"Ġy":379,"ist":380,"----":381,".ĊĊ":382,"he":383,"Ġe":384,"lo":385,"ĠM":386,"Ġbe":387,"ers":388,"Ġon":389,"Ġcon":390,"ap":391,"ub":392,"ĠP":393,"ĠĠĠĠĠĠĠĠĠĠĠĠĠĠĠ":394,"ass":395,"int":396,">Ċ":397,"ly":398,"urn":399,"Ġ$":400,";ĊĊ":401,"av":402,"port":403,"ir":404,"->":405,"nt":406,"ction":407,"end":408,"Ġde":409,"00":410,"ith":411,"out":412,"turn":413,"our":414,"ĠĠĠĠĠ":415,"lic":416,"res":417,"pt":418,"==":419,"Ġthis":420,"Ġwh":421,"Ġif":422,"ĠD":423,"ver":424,"age":425,"ĠB":426,"ht":427,"ext":428,"=\"":429,"Ġthat":430,"****":431,"ĠR":432,"Ġit":433,"ess":434,"ĠF":435,"Ġr":436,"os":437,"and":438,"Ġas":439,"ect":440,"ke":441,"rom":442,"Ġ//":443,"con":444,"ĠL":445,"(\"":446,"qu":447,"lass":448,"Ġwith":449,"iz":450,"de":451,"ĠN":452,"Ġal":453,"op":454,"up":455,"get":456,"Ġ}Ċ":457,"ile":458,"Ġan":459,"ata":460,"ore":461,"ri":462,"Ġpro":463,";čĊ":464,"ĉĉĉĉ":465,"ter":466,"ain":467,"ĠW":468,"ĠE":469,"Ġcom":470,"Ġreturn":471,"art":472,"ĠH":473,"ack":474,"import":475,"ublic":476,"Ġor":477,"est":478,"ment":479,"ĠG":480,"able":481,"Ġ-":482,"ine":483,"ill":484,"ind":485,"ere":486,"::":487,"ity":488,"Ġ+":489,"Ġtr":490,"elf":491,"ight":492,"('":493,"orm":494,"ult":495,"str":496,"..":497,"\",":498,"Ġyou":499,"ype":500,"pl":501,"Ġnew":502,"Ġj":503,"ĠĠĠĠĠĠĠĠĠĠĠĠĠĠĠĠĠĠĠ":504,"Ġfrom":505,"Ġex":506,"ĠO":507,"20":508,"ld":509,"Ġ[":510,"oc":511,":Ċ":512,"Ġse":513,"Ġle":514,"--------":515,".s":516,"{Ċ":517,"',":518,"ant":519,"Ġat":520,"ase":521,".c":522,"Ġch":523,"</":524,"ave":525,"ang":526,"Ġare":527,"Ġint":528,"âĢĻ":529,"_t":530,"ert":531,"ial":532,"act":533,"}Ċ":534,"ive":535,"ode":536,"ost":537,"Ġclass":538,"Ġnot":539,"og":540,"ord":541,"alue":542,"all":543,"ff":544,"();Ċ":545,"ont":546,"ime":547,"are":548,"ĠU":549,"Ġpr":550,"Ġ:":551,"ies":552,"ize":553,"ure":554,"Ġby":555,"ire":556,"Ġ}ĊĊ":557,".p":558,"Ġsh":559,"ice":560,"ast":561,"ption":562,"tring":563,"ok":564,"__":565,"cl":566,"##":567,"Ġhe":568,"ard":569,").":570,"Ġ@":571,"iew":572,"ĉĉĉ":573,"Ġwas":574,"ip":575,"this":576,"Ġu":577,"ĠThe":578,"ide":579,"ace":580,"ib":581,"ac":582,"rou":583,"Ġwe":584,"ject":585,"Ġpublic":586,"ak":587,"ve":588,"ath":589,"oid":590,"Ġ=>":591,"ust":592,"que":593,"Ġres":594,"))":595,"'s":596,"Ġk":597,"ans":598,"yst":599,"unction":600,"********":601,"Ġi":602,"Ġus":603,"pp":604,"10":605,"one":606,"ail":607,"====":608,"name":609,"Ġstr":610,"Ġ/":611,"Ġ&":612,"ach":613,"div":614,"ystem":615,"ell":616,"Ġhave":617,"err":618,"ould":619,"ull":620,"pon":621,"ĠJ":622,"_p":623,"Ġ==":624,"ign":625,"St":626,".Ċ":627,"Ġpl":628,");ĊĊ":629,"form":630,"put":631,"ount":632,"}ĊĊ":633,"dd":634,"ite":635,"Ġget":636,"rr":637,"ome":638,"ĠâĢ":639,"aram":640,"cc":641,"Ġ*/":642,"ER":643,"In":644,"les":645,"_s":646,"ong":647,"ie":648,"Ġcan":649,"ĠV":650,"erv":651,"pr":652,"Ġun":653,"row":654,"ber":655,"Ġdo":656,"ll":657,"Ġel":658,"Ġself":659,"ated":660,"ary":661,"Ġ.":662,"']":663,"ud":664,"Ġen":665,"ĠTh":666,"ĠĠĠĠĠĠĠĠĠĠĠĠĠĠĠĠĠĠĠĠĠĠĠ":667,"te":668,"_c":669,"uct":670,"Ġab":671,"ork":672,".get":673,"Ġ#":674,"aw":675,"ress":676,"ob":677,"Name":678,"201":679,"app":680,"['":681,"Ġall":682,"ory":683,"ition":684,"ance":685,"ear":686,"Ġcont":687,"vent":688,"ia":689,"Ġwill":690,"IN":691,"ĠĠĠĠĠĠĠĠĠ":692,"return":693,"Ġ</":694,"data":695,")ĊĊ":696,"Re":697,"ple":698,"ild":699,"ther":700,"Ġyour":701,"\"Ċ":702,"($":703,"Ġout":704,"),":705,"Ġhas":706,"String":707,"so":708,"Ġup":709,"ax":710,"Ġdef":711,"Ġbo":712,"ge":713,"alse":714,"ON":715,"per":716,"12":717,"ich":718,"Ġbut":719,"ĠĊ":720,"Ġ_":721,"_m":722,"add":723,"quest":724,"odel":725,"self":726,"ery":727,"ft":728,"ens":729,"////":730,"ake":731,".C":732,"Ġgo":733,"Ġfunction":734,"ĠK":735,"ivate":736,"Ġim":737,"Ġconst":738,".t":739,"Ġ*/Ċ":740,");čĊ":741,"Ġvoid":742,"Ġset":743,"ĠSystem":744,"cri":745,"()Ċ":746,"li":747,"ĉif":748,".m":749,"ally":750,"set":751,"ep":752,"âĢĻs":753,"bo":754,"def":755,"',Ċ":756,"Ġme":757,"Ġ!":758,"atch":759,"\">":760,"\",Ċ":761,"ec":762,"ĠIn":763,"ph":764,"Ġ|":765,"_f":766,"Ġvar":767,"ence":768,"Id":769,"ree":770,"ink":771,"lect":772,"ug":773,"eth":774,"Ġelse":775,"----------------":776,"19":777,"cont":778,"Ġso":779,"atic":780,"Ġlo":781,"pro":782,"ton":783,"ss":784,"own":785,"abel":786,"oint":787,"ous":788,"eld":789,"ST":790,"The":791,"ĠĠĠĠĠĠĠĠĠĠĠĠĠĠĠĠĠĠĠĠĠĠĠĠĠĠĠĠĠĠĠĠ":792,"RE":793,"\":":794,"olor":795,"tp":796,"eg":797,"key":798,"ude":799,"ĠSt":800,"ound":801,"Ġar":802,"\");Ċ":803,"ener":804,"ser":805,"11":806,"bject":807,"essage":808,"fer":809,"Ġmore":810,"ations":811,"ents":812,"Ġhis":813,"Ġthey":814,".S":815,"ĠY":816,"use":817,"ne":818,"ish":819,"old":820,"_d":821,"io":822,"ield":823,"Ġper":824,"Cont":825,"ings":826,"####":827,"Ġdata":828,"Ġsa":829,"ef":830,"fo":831,"Ġone":832,"eng":833,"Ġdis":834,"AT":835,"Ġname":836,"Ġtrue":837,"val":838,"led":839,".f":840,"Ġne":841,"Ġend":842,"32":843,".T":844,"16":845,"cre":846,"ark":847,"log":848,"Ex":849,"error":850,"_id":851,"urre":852,"ange":853,"Ġnull":854,"rray":855,"Ġmy":856,"pan":857,"ict":858,"ator":859,"View":860,"List":861,"ĉreturn":862,"âĢĿ":863,"Ġpre":864,"Ġx":865,"clude":866,"arg":867,"15":868,"ov":869,".h":870,"Ġ>":871,"Ġtheir":872,"')":873,"irst":874,"ick":875,"gh":876,"LE":877,"OR":878,"Ġprivate":879,"tem":880,"čĊčĊ":881,"user":882,"Ġ)":883,"com":884,".A":885,"\";Ċ":886,"Ġid":887,"read":888,"Ġwho":889,"_b":890,"\">Ċ":891,"Ġtime":892,"Ġman":893,"ry":894,"========":895,"roup":896,"rop":897,"public":898,"vel":899,"umber":900,"ble":901,"Ġwhich":902,"****************":903,"Ġany":904,"Ġfalse":905,"we":906,"Ġvalue":907,"Ġli":908,"\")":909,"nder":910,"gr":911,"Ġno":912,"param":913,"25":914,"fig":915,".com":916,"Ġapp":917,"_l":918,"ions":919,".D":920,"ĠCh":921,"Ġabout":922,"Ġadd":923,"Ġsu":924,"Ġstring":925,"ID":926,"Ġover":927,"string":928,".l":929,"ource":930,"000":931,"_C":932,"]Ċ":933,"Ġqu":934,"ĠString":935,"ca":936,"SE":937,"Ġro":938,"sh":939,"ual":940,"Type":941,"son":942,"new":943,"ern":944,"Ġag":945,"AR":946,"];Ċ":947,"].":948,"Ġ?":949,"ical":950,"Ġdes":951,"uth":952,"ix":953,"ays":954,"Ġtype":955,"'t":956,"ault":957,"Ġinter":958,"var":959,".b":960,"Ġpart":961,".d":962,"urrent":963,"IT":964,"EN":965,"30":966,"enc":967,"(f":968,"ra":969,"value":970,"cho":971,"18":972,"utton":973,"ose":974,"14":975,"Ġ!=":976,"ater":977,"Ã©":978,"reate":979,"oll":980,"pos":981,"yle":982,"ng":983,"AL":984,"using":985,"ames":986,"Ġ{čĊ":987,"ates":988,"ely":989,"Ġwork":990,"Ġem":991,"inal":992,"Ġsp":993,"Ġwhen":994,".set":995,"ĠĠĠĠĠĠ":996,"):Ċ":997,"to":998,"quire":999,"indow":1000,"lement":1001,"pect":1002,"ash":1003,"[i":1004,"Ġuse":1005,".F":1006,"pec":1007,"Ġad":1008,"ove":1009,"ception":1010,"ength":1011,"include":1012,"ader":1013,"ĠĠĠĠĠĠĠĠĠĠĠĠĠĠĠĠĠĠĠĠĠĠĠĠĠĠĠ":1014,"atus":1015,"Th":1016,"itle":1017,"rit":1018,"void":1019,"().":1020,"(Ċ":1021,"Ġoff":1022,"Ġother":1023,"Ġ&&":1024,"';Ċ":1025,"ms":1026,"Ġbeen":1027,"Ġte":1028,"ml":1029,"co":1030,"nc":1031,"13":1032,"ervice":1033,"Ġ%":1034,"**Ċ":1035,"ann":1036,"ade":1037,"ĊĊĊĊ":1038,"lock":1039,"const":1040,"100":1041,"ponse":1042,"Ġsup":1043,"++":1044,"date":1045,"Ġacc":1046,"Ġhad":1047,"Ġbu":1048,"200":1049,"ĠRe":1050,"Ġwere":1051,"Ġfile":1052,"Ġwould":1053,"ĠâĢľ":1054,"ven":1055,"iss":1056,"Ġour":1057,"class":1058,"raw":1059,"Ġyear":1060,"Data":1061,"Ġval":1062,"Ġsome":1063,"fter":1064,"ys":1065,"Ġ///":1066,"round":1067,"view":1068,"Ġpe":1069,"Ġthere":1070,"Ġsaid":1071,"du":1072,"of":1073,"line":1074,"/*":1075,"duct":1076,"Ġher":1077,"ĠĠĠĠĠĠĠĠĠĠĠĠĠ":1078,"Res":1079,"Ġco":1080,"Ġcomm":1081,"ise":1082,"min":1083,"ĠĠĠĠĊ":1084,"#include":1085,"ethod":1086,".P":1087,"ute":1088,"Ġass":1089,"Int":1090,"ask":1091,"loc":1092,"Ġlike":1093,"ody":1094,"Ġlet":1095,"load":1096,"Ġam":1097,"rol":1098,"Ġgr":1099,"yp":1100,"Ġalso":1101,"ĠIt":1102,"url":1103,"ific":1104,"ors":1105,"_P":1106,"_n":1107,"igh":1108,"Ġthan":1109,"Com":1110,"AN":1111,"UL":1112,"ating":1113,"17":1114,"ĠThis":1115,"ref":1116,"_S":1117,"Ġstatic":1118,"roll":1119,"Ġjust":1120,"Ġresult":1121,"ian":1122,"idth":1123,"Ġthem":1124,"));Ċ":1125,"der":1126,"reak":1127,"Con":1128,"://":1129,"ule":1130,"...":1131,"arch":1132,"ement":1133,"Ġ<<":1134,"50":1135,"ush":1136,"ense":1137,"arr":1138,"Ġinto":1139,"cess":1140,"amp":1141,"ied":1142,"ument":1143,"Ġ\\":1144,"],":1145,"wo":1146,"als":1147,"Ġwhat":1148,"anc":1149,"Value":1150,"='":1151,"olum":1152,"Ġpos":1153,"ages":1154,"ayer":1155,"Ġsc":1156,"ues":1157,"\")Ċ":1158,"_T":1159,"Ġlist":1160,"(s":1161,"Ġcase":1162,"Ch":1163,"ĉĉĉĉĉ":1164,"////////":1165,"ponent":1166,"Ġz":1167,"Ġkn":1168,"let":1169,"DE":1170,"red":1171,"Ġfe":1172,"Ġ},Ċ":1173,"Ġ,":1174,"(t":1175,"Ġfirst":1176,"');Ċ":1177,"word":1178,"Ġimport":1179,"Ġact":1180,"Ġchar":1181,"CT":1182,"ĠTr":1183,"ople":1184,"={":1185,"ĉf":1186,"24":1187,"ient":1188,"cent":1189,".j":1190,"lection":1191,"))Ċ":1192,"Ġonly":1193,"Ġprint":1194,"mer":1195,".W":1196,"ock":1197,"Ġ--":1198,"Text":1199,"Ġop":1200,"ank":1201,"Ġits":1202,"Ġback":1203,"[\"":1204,"Ġneed":1205,"Ġcl":1206,"Ġsub":1207,"Ġla":1208,"((":1209,".\"":1210,"Object":1211,"Ġstart":1212,"file":1213,"(self":1214,"ner":1215,"ey":1216,"Ġuser":1217,"Ġent":1218,"ĠCom":1219,"its":1220,"ĠCon":1221,"ouble":1222,"ower":1223,"item":1224,"very":1225,"ĠWe":1226,"64":1227,"lick":1228,"ĠQ":1229,"php":1230,"ttp":1231,"':":1232,"ics":1233,"Ġunder":1234,"Ġ*Ċ":1235,".L":1236,");":1237,"ices":1238,"Ġreg":1239,")čĊ":1240,"ĉpublic":1241,"SS":1242,"Ġthen":1243,"reat":1244,"ious":1245,".G":1246,"ek":1247,"irect":1248,"heck":1249,"cript":1250,"ning":1251,"ĠUn":1252,"Ġmay":1253,"ĠWh":1254,"Bo":1255,"Item":1256,"struct":1257,".st":1258,"ream":1259,"ible":1260,"loat":1261,"Ġorg":1262,"und":1263,"sum":1264,"_in":1265,"../":1266,"_M":1267,"Ġhow":1268,"rite":1269,"'Ċ":1270,"To":1271,"40":1272,"ww":1273,"Ġpeople":1274,"index":1275,".n":1276,"http":1277,"(m":1278,"ector":1279,"Ġind":1280,"Ġjav":1281,"],Ċ":1282,"ĠHe":1283,"_st":1284,"ful":1285,"ole":1286,"){Ċ":1287,"Ġshould":1288,"opy":1289,"elp":1290,"ier":1291,"_name":1292,"erson":1293,"ION":1294,"ote":1295,"Ġtest":1296,"Ġbet":1297,"rror":1298,"ular":1299,"ãĢ":1300,"ĠÐ":1301,"bs":1302,"ting":1303,"Ġmake":1304,"Tr":1305,"Ġafter":1306,"arget":1307,"RO":1308,"olumn":1309,"rc":1310,"_re":1311,"define":1312,"22":1313,"Ġright":1314,"right":1315,"day":1316,"Ġlong":1317,"[]":1318,"(p":1319,"td":1320,"cond":1321,"ĠPro":1322,"Ġrem":1323,"ptions":1324,"vid":1325,".g":1326,"Ġext":1327,"Ġ__":1328,"')Ċ":1329,"pace":1330,"mp":1331,"Ġmin":1332,"stance":1333,"air":1334,"action":1335,"wh":1336,"type":1337,"util":1338,"ait":1339,"<?":1340,"IC":1341,"text":1342,"Ġph":1343,"Ġfl":1344,".M":1345,"ccess":1346,"br":1347,"fore":1348,"ersion":1349,"),Ċ":1350,".re":1351,"ateg":1352,"Ġloc":1353,"ins":1354,"-s":1355,"trib":1356,"ĠInt":1357,"Ġarray":1358,",\"":1359,"Pro":1360,"(c":1361,"ession":1362,">ĊĊ":1363,"Ġshe":1364,"\"]":1365,"aph":1366,"Ġexp":1367,"erty":1368,"ĠSe":1369,"Ġpar":1370,"unc":1371,"ET":1372,"Ġread":1373,"print":1374,"Ġrel":1375,"Ġform":1376,"Ġdr":1377,"Exception":1378,"input":1379,"Ġtrans":1380,"########":1381,"order":1382,"By":1383,"Ġaw":1384,"ities":1385,"uff":1386,"play":1387,".add":1388,"ĠâĢĵ":1389,"Ġwant":1390,"Ġcomp":1391,"ments":1392,"Ġ||":1393,"az":1394,"be":1395,"Ġnumber":1396,"Ġrequire":1397,"ĠEx":1398,"60":1399,"Ġcol":1400,"Ġkey":1401,"ember":1402,"Ġtwo":1403,"Ġsize":1404,"Ġwhere":1405,"UT":1406,"result":1407,"ĠĠĠĠĠĠĠĠĠĠĠĠĠĠĠĠĠĠĠĠĠĠĠĠĠĠĠĠĠĠĠ":1408,"ough":1409,"orld":1410,"ood":1411,"uch":1412,"ative":1413,"ger":1414,"arent":1415,"Ġ/*":1416,"Ġarg":1417,"Ġwhile":1418,"23":1419,"(this":1420,"Ġrec":1421,"Ġdif":1422,"State":1423,"Ġspec":1424,"ride":1425,"_F":1426,"Ġlook":1427,"AM":1428,"ility":1429,"eter":1430,"âĢĻt":1431,"ĊĊĊ":1432,"ayout":1433,"--------------------------------":1434,"ager":1435,"Ġcould":1436,"Ġbr":1437,"ends":1438,"ures":1439,"Ġknow":1440,"ets":1441,"ĠIf":1442,"ĠSh":1443,".w":1444,"back":1445,"Ġser":1446,"Ġ+=":1447,"Ġfr":1448,"());Ċ":1449,"Ġhand":1450,"Ind":1451,"ULL":1452,"Im":1453,"();ĊĊ":1454,"Ġmost":1455,"Ġtry":1456,"Ġnow":1457,"rough":1458,">čĊ":1459,"ackage":1460,"Ġhim":1461,"._":1462,"ify":1463,"Ġbreak":1464,"Ġ);Ċ":1465,"ren":1466,"#define":1467,"itt":1468,"Ġap":1469,"ĉc":1470,"(n":1471,"ĠYou":1472,":ĊĊ":1473,"-m":1474,"Ġevery":1475,"ustom":1476,"lient":1477,"ocument":1478,"cription":1479,"Error":1480,"-b":1481,"Ð¾":1482,"][":1483,"99":1484,"trans":1485,"Ġpoint":1486,"Ġstd":1487,"Ġfil":1488,"Time":1489,"80":1490,"Ġmod":1491,"Ġ->":1492,"Ġerror":1493,"ah":1494,"Ġtext":1495,"roller":1496,"lose":1497,"ql":1498,"Ġpol":1499,"></":1500,"Ġshow":1501,"User":1502,"ased":1503,"Ġ{ĊĊ":1504,"Ġfind":1505,"Ð°":1506,"ED":1507,"span":1508,"enu":1509,"Ġcurrent":1510,"Ġused":1511,"cept":1512,"clud":1513,"Ġplay":1514,"Ġlog":1515,"ution":1516,"fl":1517,"Ġsee":1518,"indows":1519,"Ġhelp":1520,"Ġthese":1521,"Ġpass":1522,"Ġdown":1523,"Ġeven":1524,"ason":1525,"uild":1526,"from":1527,"(d":1528,"Ġbl":1529,"label":1530,"else":1531,"Ðµ":1532,"Ġ(!":1533,"ized":1534,"(),":1535,"Ġob":1536,"Ġitem":1537,"ump":1538,"UR":1539,"orn":1540,"Ġdon":1541,"Se":1542,"man":1543,"27":1544,"ample":1545,"tn":1546,"================":1547,"He":1548,"gram":1549,"Ġdid":1550,"wn":1551,"_h":1552,"iver":1553,"Ġsm":1554,"Ġthrough":1555,"ĠAn":1556,"che":1557,"Ġinv":1558,"ouse":1559,"Ġes":1560,"ĠNew":1561,"export":1562,"mary":1563,"uto":1564,"ler":1565,"Ġlast":1566,"Ġevent":1567,"try":1568,"ï¼":1569,"ily":1570,"igned":1571,"ines":1572,"ollow":1573,"icense":1574,"sole":1575,"lear":1576,"(int":1577,"Ġagain":1578,"Ġhigh":1579,"html":1580,"Index":1581,"uthor":1582,"Ġ/**Ċ":1583,"Ġline":1584,"Event":1585,"_D":1586,"Ġdoes":1587,"itial":1588,"Ġcr":1589,"ars":1590,"28":1591,"Ġtem":1592,"cause":1593,"face":1594,"Ġ`":1595,"_A":1596,"Button":1597,"ature":1598,"ected":1599,"ES":1600,"ister":1601,"ĉĊ":1602,"Ġbefore":1603,"ale":1604,"other":1605,"Ġbecause":1606,"roid":1607,"Ġed":1608,"ik":1609,"reg":1610,"ĠDe":1611,"Ġdist":1612,"},Ċ":1613,"Ġstate":1614,"Ġcons":1615,"rint":1616,"att":1617,"Ġhere":1618,"ined":1619,"Ġfinal":1620,"Ġ\"\"":1621,"Key":1622,"LO":1623,"Ġdel":1624,"pty":1625,"thing":1626,"26":1627,"ĠAnd":1628,"Ġrun":1629,"ĠX":1630,"ym":1631,".app":1632,"Ġvery":1633,"ces":1634,"_N":1635,"ared":1636,"ward":1637,"list":1638,"ited":1639,"olog":1640,"itch":1641,"Box":1642,"ife":1643,"33":1644,"Ġac":1645,"Ġmodel":1646,"Ġmon":1647,"Ġway":1648,"lete":1649,"Ġcall":1650,"Ġatt":1651,"Ġcal":1652,"vert":1653,"Ġdec":1654,"lease":1655,"oun":1656,"Ġ});Ċ":1657,"fr":1658,"formation":1659,"etail":1660,"Ġnum":1661,"aj":1662,"query":1663,"Ġwell":1664,"Ġobject":1665,"ĠAs":1666,"Ġyears":1667,"Color":1668,"IS":1669,"Ġdefault":1670,"Wh":1671,"Ġins":1672,"aint":1673,"Ġjava":1674,"Ġsim":1675,"ĠAr":1676,"mon":1677,"til":1678,"();čĊ":1679,"):":1680,"Set":1681,"29":1682,"atter":1683,"Ġview":1684,"Ġpres":1685,"array":1686,"We":1687,"At":1688,"Ġbel":1689,"Ġmany":1690,"21":1691,"Man":1692,"ender":1693,"Ġbeing":1694,"Ġgood":1695,"ĉĉĉĉĉĉ":1696,"ational":1697,"ware":1698,".log":1699,"{čĊ":1700,"Ġusing":1701,"_B":1702,"Ġ:=":1703,"_w":1704,"ists":1705,"lish":1706,"Ġstud":1707,"ĠAl":1708,"Ġgu":1709,"config":1710,"uring":1711,"time":1712,"oken":1713,"amespace":1714,"Ġrequest":1715,"Ġchild":1716,"ĠÃ":1717,"lob":1718,"Ġparam":1719,"Ġ}čĊ":1720,"01":1721,"Ġecho":1722,"function":1723,"********************************":1724,"ps":1725,"Element":1726,"alk":1727,"lication":1728,"by":1729,"Size":1730,"rawing":1731,"Ġperson":1732,"ĠĠĠĠĠĠĠĠĠĠĠĠĠĠĠĠĠ":1733,"\\n":1734,"object":1735,"ince":1736,"En":1737,"File":1738,"uf":1739,"ffect":1740,"AC":1741,"Ġstyle":1742,"summary":1743,"Ġque":1744,"_r":1745,"Ġ($":1746,"Model":1747,"ident":1748,"Ġmethod":1749,"IL":1750,"ott":1751,"less":1752,"ING":1753,"Ġ()":1754,"Ġexpect":1755,"ync":1756,"package":1757,"35":1758,"urs":1759,"Ġprot":1760,"./":1761,"pre":1762,"Ġ)Ċ":1763,"ma":1764,"Ġsur":1765,"Ġfound":1766,"Info":1767,"par":1768,"imes":1769,".e":1770,"ains":1771,"Ġpost":1772,"-d":1773,"45":1774,"olean":1775,"Ġsl":1776,"PE":1777,"Ġsuch":1778,"select":1779,"ainer":1780,"Ġthink":1781,"Ġdiffer":1782,".r":1783,"/**Ċ":1784,"FF":1785,"ool":1786,"plate":1787,"qual":1788,"ĠFor":1789,"Ġmuch":1790,"uc":1791,"(new":1792,"odule":1793,"Ġsom":1794,"Ġhttp":1795,"ĠList":1796,"Ġcount":1797,"Ġinst":1798,"char":1799,"mit":1800,".id":1801,"aking":1802,"Ġgener":1803,"px":1804,"vice":1805,"37":1806,"_data":1807,"ĠNULL":1808,"}čĊ":1809,"idd":1810,"ãĢĤ":1811,"Ġmed":1812,"org":1813,"ider":1814,"ache":1815,"work":1816,"Ġcheck":1817,"ween":1818,"Ġ((":1819,"the":1820,"ants":1821,"><":1822,".B":1823,"-c":1824,"Ġopen":1825,"Ġest":1826,"ĠĠĠĠĠĠĠĠĊ":1827,"Ġnext":1828,"IM":1829,"ÑĤ":1830,"OT":1831,"Ã³":1832,"Ġfollow":1833,"content":1834,"ĠĠĠĠĠĠĠĠĠĠĠĠ":1835,"Ġinclud":1836,"HE":1837,"ĠRes":1838,"Ġhref":1839,"Ð¸":1840,"Ġcar":1841,"ypes":1842,"image":1843,"Un":1844,"Ġbool":1845,"AD":1846,"Ġgame":1847,".Form":1848,"rows":1849,"*/":1850,"velop":1851,".Drawing":1852,"Ġpath":1853,"ision":1854,"Ġeach":1855,"ĠPl":1856,"_type":1857,"Path":1858,"nection":1859,"Ġav":1860,"').":1861,"Ġsupport":1862,"ENT":1863,"rem":1864,"\").":1865,"Ġown":1866,"Ġcor":1867,"count":1868,"miss":1869,"ually":1870,"Ġmem":1871,"std":1872,"ience":1873,"search":1874,"\"ĊĊ":1875,"Form":1876,"Ġsex":1877,"ename":1878,"Ġsign":1879,"Ġet":1880,"ĠĠĠĠĠĠĠĠĠĠ":1881,"','":1882,"ĠApp":1883,"Ġthose":1884,"off":1885,"Ġerr":1886,"Ġsystem":1887,"Ġbest":1888,"code":1889,"Ġsame":1890,"Ġdi":1891,"uss":1892,"Ġcreate":1893,"ather":1894,"Array":1895,".in":1896,"fe":1897,"Service":1898,"UN":1899,"ats":1900,"ĠZ":1901,"alth":1902,"Ġmade":1903,"true":1904,"AB":1905,"Ġmark":1906,"rid":1907,"ified":1908,",čĊ":1909,"yn":1910,"press":1911,"Ġgroup":1912,"Ġfin":1913,"ĠLicense":1914,"Field":1915,"eger":1916,"Ġworld":1917,"iness":1918,"ty":1919,"Ġprocess":1920,"(b":1921,"Ġcre":1922,"arn":1923,"ives":1924,"Ġmain":1925,"ideo":1926,"36":1927,"_g":1928,"AG":1929,"valid":1930,"img":1931,"PI":1932,"Ġcolor":1933,"Ġreport":1934,"Ġtake":1935,"rib":1936,"OM":1937,"Ġday":1938,"Request":1939,"Ġsk":1940,"bers":1941,"ĉs":1942,".Add":1943,"oot":1944,"Image":1945,"Ġcomple":1946,"ollection":1947,"Ġtop":1948,"Ġfree":1949,"AS":1950,"De":1951,"ĠOn":1952,"IG":1953,"90":1954,"eta":1955,"Date":1956,"Ġaction":1957,"34":1958,"Over":1959,"itor":1960,"ĠĠĠĠĠĠĠĠĠĠĠĠĠĠĠĠĠĠĠĠĠĠĠĠĠĠĠĠĠĠĠĠĠĠĠ":1961,"not":1962,"Ġindex":1963,"her":1964,"icon":1965,"On":1966,";čĊčĊ":1967,"ivity":1968,"mand":1969,".Windows":1970,"OL":1971,"Ġreal":1972,"Ġmax":1973,"land":1974,"....":1975,"raph":1976,"Ġbuild":1977,"leg":1978,"assword":1979,"?ĊĊ":1980,"âĢ¦":1981,"ook":1982,"uck":1983,"Ġmessage":1984,"test":1985,"ivers":1986,"38":1987,"Ġinput":1988,"Ġart":1989,"Ġbetween":1990,"Get":1991,"enter":1992,"ground":1993,"ene":1994,"Ã¡":1995,".length":1996,"Node":1997,"(i":1998,"Class":1999,"for":2000,"ĠâĢĶ":2001,"ten":2002,"oin":2003,"Ġke":2004,"ui":2005,"ĠIN":2006,"Ġtable":2007,"sub":2008,"ĠLe":2009,"Ġhead":2010,"Ġmust":2011,"////////////////":2012,".util":2013,"Context":2014,"Ġorder":2015,"Ġmov":2016,"over":2017,"Ġcontin":2018,"Ġsay":2019,"static":2020,".Text":2021,"ĠclassName":2022,"pany":2023,"Ġter":2024,"head":2025,"rg":2026,"Ġproduct":2027,"This":2028,".âĢĿ":2029,"ĠBut":2030,"70":2031,"loy":2032,"Ġdouble":2033,"sg":2034,"Ġplace":2035,".x":2036,"message":2037,"Ġinformation":2038,"private":2039,"Ġoper":2040,"ced":2041,"db":2042,"\"></":2043,"Param":2044,"icle":2045,"Ġweek":2046,"Ġprop":2047,"table":2048,"idget":2049,"place":2050,"Prop":2051,"ĠAll":2052,"els":2053,"box":2054,".ĊĊĊĊ":2055,".R":2056,"ĠTo":2057,"iter":2058,"Sh":2059,"uration":2060,"older":2061,"_list":2062,"come":2063,"Ġsw":2064,"ization":2065,"ĉfor":2066,"bl":2067,"Ġprogram":2068,"(e":2069,"ape":2070,"check":2071,".Forms":2072,"Ġund":2073,"ategory":2074,"75":2075,"ags":2076,"Ġresponse":2077,"US":2078,"request":2079,"Ġstruct":2080,"escription":2081,"Ġcode":2082,"_H":2083,"uffer":2084,"Ġwithout":2085,"lobal":2086,"Manager":2087,"ilter":2088,"PO":2089,"ĉthis":2090,"option":2091,"Ġsol":2092,"Ġ===":2093,"akes":2094,"Controller":2095,"44":2096,"Message":2097,"Ġref":2098,"ever":2099,"ĠSo":2100,"aining":2101,".append":2102,"Ġstill":2103,"Ġprovid":2104,"Ġassert":2105,"med":2106,"Ġcap":2107,"usiness":2108,"Ġrep":2109,"tings":2110,"ved":2111,".N":2112,"api":2113,"OD":2114,"Ġfield":2115,"iven":2116,"oto":2117,"âĢľ":2118,"col":2119,"(x":2120,"ght":2121,"Result":2122,"Code":2123,".is":2124,"link":2125,"Ġcour":2126,"An":2127,"Ġteam":2128,"ĉint":2129,"ift":2130,"55":2131,"Ġsecond":2132,"Ġgoing":2133,"Ġrange":2134,"_E":2135,"ness":2136,"39":2137,"Ġfam":2138,"Ġnil":2139,"ĠCont":2140,"ailable":2141,"utes":2142,"atab":2143,"Ġfact":2144,"Ġvis":2145,"(&":2146,"ĠAN":2147,"31":2148,"Al":2149,"title":2150,"Ġandroid":2151,"CE":2152,"\\\"":2153,"irt":2154,"Ġwrit":2155,"Ð½":2156,"ĉm":2157,"ftware":2158,"ond":2159,"Ġret":2160,"osition":2161,"Ġhome":2162,"Ġleft":2163,"args":2164,"meric":2165,"48":2166,"Ġdirect":2167,"oci":2168,"Pl":2169,"As":2170,"ret":2171,"ado":2172,"Of":2173,"chn":2174,"ĠGet":2175,"ee":2176,"ross":2177,"();":2178,"____":2179,".ph":2180,"It":2181,"oute":2182,"Ġexper":2183,"chool":2184,"www":2185,"},":2186,"Ġallow":2187,"ĠÂ":2188,"())":2189,"size":2190,"ism":2191,"ai":2192,"tract":2193,"ane":2194,"...ĊĊ":2195,"context":2196,"Ġbeg":2197,"CH":2198,"Ġpage":2199,"hip":2200,"no":2201,"core":2202,"sp":2203,"Ġdifferent":2204,"iable":2205,"ĠMe":2206,"_IN":2207,"button":2208,"ĠIs":2209,"ervices":2210,"Ġca":2211,"Ġaround":2212,"App":2213,"ration":2214,"Ġrece":2215,"Ġreally":2216,"Ġimage":2217,"Ġtarget":2218,"Ġdep":2219,"opyright":2220,"tra":2221,"ingle":2222,"ital":2223,"Layout":2224,"Ġboth":2225,"Override":2226,"arm":2227,"=>":2228,"aterial":2229,"iled":2230,"Ġput":2231,"Qu":2232,"ÑĢ":2233,"ung":2234,"map":2235,"ĉĉĉĉĉĉĉĉ":2236,"Ġlevel":2237,"Component":2238,"book":2239,"creen":2240,"_RE":2241,"Ġconfig":2242,"ãģ":2243,"Or":2244,".data":2245,"Ġdocument":2246,"\",\"":2247,"tribute":2248,"ux":2249,"Log":2250,"ference":2251,"post":2252,"_e":2253,"Ġlocal":2254,"andom":2255,"assert":2256,"Val":2257,"lected":2258,"ina":2259,"atabase":2260,"Add":2261,"Ġcontent":2262,".print":2263,"signed":2264,"ric":2265,".\"ĊĊ":2266,"Ġfa":2267,"!ĊĊ":2268,"-f":2269,"ived":2270,"Ġquest":2271,".ex":2272,"Ġfloat":2273,"Ġdevelop":2274,"Ð¾Ð":2275,"Map":2276,"ading":2277,"Ġposs":2278,"UE":2279,"namespace":2280,"_O":2281,"ĉb":2282,".Get":2283,">(":2284,"json":2285,"etails":2286,"66":2287,"Ġtoo":2288,"Ġextends":2289,"ĠNone":2290,"Ġfore":2291,"(String":2292,"format":2293,"Ġgreat":2294,"inter":2295,"cale":2296,"Ñģ":2297,"ron":2298,"iving":2299,"Ent":2300,"ency":2301,"xt":2302,"oy":2303,"05":2304,"Ġmonth":2305,"Ġhapp":2306,"Ġsuper":2307,"bar":2308,"default":2309,"_de":2310,"ords":2311,"ln":2312,"({Ċ":2313,"ĠInd":2314,"ases":2315,"Ġtitle":2316,"Ġcontext":2317,"08":2318,"oh":2319,"-p":2320,"Em":2321,"Ġmet":2322,"Test":2323,"Ġlife":2324,"_v":2325,"ĠUS":2326,"UI":2327,"ocation":2328,"md":2329,"Ġ[Ċ":2330,"Ġ]":2331,"sw":2332,"Ġincre":2333,"script":2334,"ential":2335,"ways":2336,".de":2337,"Ġsrc":2338,"Ġcatch":2339,"ĠAmeric":2340,"//Ċ":2341,"ĠĠĠĠĠĠĠĠĠĠĠĠĠĠ":2342,"Ġpay":2343,"plit":2344,"âĢĶ":2345,"Ġcoun":2346,"obj":2347,".php":2348,"Ġchange":2349,"ething":2350,"'re":2351,"aster":2352,"los":2353,"lation":2354,"ĠĠĊ":2355,"Le":2356,"Ã¤":2357,"({":2358,"ready":2359,"ĠNo":2360,"Ġposition":2361,"Ġold":2362,"Ġbook":2363,"abled":2364,"bug":2365,"202":2366,"Hand":2367,"};ĊĊ":2368,"isplay":2369,"aving":2370,"04":2371,"Ġgover":2372,"Ġversion":2373,"System":2374,"nect":2375,"response":2376,"Style":2377,"Up":2378,"angu":2379,"Ġthree":2380,"init":2381,"ero":2382,"Ġlaw":2383,"endif":2384,"Ġbase":2385,"email":2386,"(l":2387,"_V":2388,"Ġconf":2389,"ATE":2390,"Ġduring":2391,"tes":2392,"Ġconsole":2393,"ĠPr":2394,"Ġspe":2395,"ves":2396,"65":2397,"path":2398,"ialog":2399,"dition":2400,"_to":2401,"ards":2402,"Ġagainst":2403,"etwork":2404,"ĠPh":2405,"_L":2406,"cur":2407,"imit":2408,"With":2409,"Ġpower":2410,"ium":2411,"';ĊĊ":2412,"Ġwom":2413,"left":2414,"ources":2415,"atri":2416,"ĠIm":2417,"ĠMan":2418,"orth":2419,"${":2420,"88":2421,"quals":2422,"ese":2423,"_size":2424,"Ġiss":2425,"otal":2426,"-g":2427,"ique":2428,"rame":2429,"Ġwidth":2430,"erg":2431,")(":2432,"ittle":2433,"TR":2434,"ĠThey":2435,"ences":2436,"02":2437,"rl":2438,"ons":2439,"Ġlabel":2440,".y":2441,"-t":2442,"update":2443,"anel":2444,"sc":2445,".to":2446,"Ġproject":2447,"Ã¼":2448,"Ġelement":2449,"Ġsuccess":2450,"ĉĉĊ":2451,".sh":2452,"ram":2453,"ched":2454,"())Ċ":2455,"Ġ(Ċ":2456,"Ġdate":2457,"Ġtot":2458,"_ST":2459,"All":2460,"ification":2461,"ĉvar":2462,"Ġtri":2463,"chem":2464,"my":2465,"Ġbig":2466,"ĠAd":2467,"ĠAt":2468,"ots":2469,"num":2470,"Act":2471,"Ġmap":2472,"era":2473,"cope":2474,".$":2475,",âĢĿ":2476,"Ġpop":2477,"Ġfew":2478,"Ġlen":2479,"uid":2480,"eters":2481,"ules":2482,"ÃŃ":2483,"source":2484,"https":2485,"Ġdem":2486,"Ġear":2487,"################":2488,"Ġmatch":2489,"ories":2490,"49":2491,"aces":2492,"ĠCl":2493,"Ġnode":2494,"78":2495,"irc":2496,"local":2497,"unity":2498,"};Ċ":2499,"Ġanother":2500,"<<":2501,"ogle":2502,"Ġsit":2503,"ework":2504,"TE":2505,".I":2506,"NS":2507,"ology":2508,"ought":2509,".Cont":2510,">>":2511,"Ġcare":2512,"state":2513,"ĉprivate":2514,"Ġeffect":2515,"++)":2516,"_file":2517,"ending":2518,"Line":2519,"For":2520,"ior":2521,"ĠSc":2522,"Ġfun":2523,".Size":2524,"ĉelse":2525,"])":2526,"start":2527,"vious":2528,"Ġ},":2529,"ours":2530,"Ġleg":2531,"Ġservice":2532,"Ġsince":2533,"iron":2534,"Label":2535,"Ġnon":2536,"Ġlos":2537,"iction":2538,"Ġfull":2539,"acter":2540,"board":2541,"gress":2542,"Ġturn":2543,"ither":2544,"09":2545,".size":2546,"Ġbody":2547,"resh":2548,"eturn":2549,"199":2550,"(_":2551,"yles":2552,"ormal":2553,"pi":2554,"Ġsomething":2555,"!--":2556,"uint":2557,"Ġprodu":2558,"Ġstand":2559,"Ġproble":2560,"Ġavailable":2561,"mt":2562,"ĠBl":2563,"Ġ...":2564,"Ġblock":2565,"Input":2566,"Ġkeep":2567,"Count":2568,"open":2569,"Ġ['":2570,"Ġthrow":2571,"uilder":2572,"Action":2573,"Ġthings":2574,"True":2575,"Ġurl":2576,"ĠBo":2577,"printf":2578,"Ġred":2579,"js":2580,".create":2581,"ĠOr":2582,"Status":2583,"Instance":2584,"Ġcontrol":2585,"Ġcome":2586,"Ġcustom":2587,"location":2588,"07":2589,"model":2590,"ĠčĊ":2591,"Ġsource":2592,"Ġeas":2593,".out":2594,"]ĊĊ":2595,"oney":2596,"Ġawait":2597,"Ġpartic":2598,"AP":2599,"ublish":2600,"odes":2601,"_pro":2602,"ply":2603,"riter":2604,"Ġprov":2605,"Ġmill":2606,"HT":2607,"])Ċ":2608,"Ġchang":2609,"Ġask":2610,"ĠĠĠĠĠĠĠĠĠĠĠĠĠĠĠĠĠĠĠĠĠ":2611,"Ġoutput":2612,"Ġemail":2613,"68":2614,".push":2615,"Ġ}čĊčĊ":2616,"ination":2617,"47":2618,"atrix":2619,"Table":2620,"uccess":2621,"]);Ċ":2622,"ĠĠĠĠĠĠĠĠĠĠĠĠĠĠĠĠĠĠĠĠĠĠĠĠĠĠĠĠĠĠĠĠĠĠĠĠĠĠĠ":2623,"Ġdisc":2624,"([":2625,"Ġbusiness":2626,"height":2627,".html":2628,"ta":2629,"field":2630,"Ġrequired":2631,"_R":2632,"Ġgovern":2633,"}čĊčĊ":2634,"lex":2635,"500":2636,".,":2637,"ĠSet":2638,"urch":2639,"///":2640,"ts":2641,"af":2642,"Ġmight":2643,"istory":2644,"Str":2645,"Ġnever":2646,"Response":2647,"arse":2648,"ada":2649,"ĠHow":2650,"Ġ*)":2651,"Ġ;":2652,"Ġhard":2653,"Ad":2654,"Ġintern":2655,"used":2656,"(data":2657,"mod":2658,"annel":2659,"Ġnp":2660,"ugg":2661,"Ġ/>Ċ":2662,"Ġcalled":2663,"body":2664,"Ġcho":2665,"(r":2666,"_set":2667,"ird":2668,"Ġ>=":2669,"Ġ};Ċ":2670,"Ġoptions":2671,"ĠGener":2672,"Ġheight":2673,"Point":2674,"You":2675,"ety":2676,"Click":2677,"Ġsmall":2678,"Ġide":2679,"Ġaccess":2680,"anguage":2681,"Ġprotected":2682,"Ġjob":2683,"ĠThere":2684,"Def":2685,"Ġaddress":2686,"Ġuint":2687,"Not":2688,"oo":2689,"aps":2690,"<div":2691,"ained":2692,"atur":2693,"Ġsum":2694,"-w":2695,"ĠDate":2696,"Ġlittle":2697,"Ġfri":2698,"YPE":2699,"Ġport":2700,"eh":2701,"pring":2702,"_path":2703,"Ġstatus":2704,"06":2705,"aim":2706,"bool":2707,"Ġappe":2708,"Ġos":2709,".name":2710,"ension":2711,"_G":2712,"Ġupdate":2713,"Config":2714,"aff":2715,"ERR":2716,"Ġ<=":2717,"ately":2718,"#if":2719,"uction":2720,"95":2721,"ĠTe":2722,"Ġlink":2723,"ĠUser":2724,".find":2725,".org":2726,"me":2727,"Ġgiven":2728,"Out":2729,"#endif":2730,"Ġbetter":2731,"Page":2732,"Ġfeel":2733,"enn":2734,"ML":2735,"Ġalready":2736,"Ġincluding":2737,"oogle":2738,"ru":2739,"ically":2740,"prop":2741,"lean":2742,"outer":2743,"Ġalways":2744,"ording":2745,"If":2746,"orage":2747,"Ġparent":2748,"vis":2749,"ĉĉĉĉĉĉĉ":2750,"Ġgot":2751,"stand":2752,"Ġless":2753,"/s":2754,"ĠAss":2755,"apt":2756,"ired":2757,"ĠAdd":2758,"Ġaccount":2759,"ploy":2760,"Ġder":2761,"resent":2762,"Ġlot":2763,"Ġvalid":2764,"ĉd":2765,"Ġbit":2766,"ponents":2767,"Ġfollowing":2768,"_ex":2769,"SON":2770,"Ġsure":2771,"ocial":2772,"Ġprom":2773,"erties":2774,"header":2775,".pro":2776,"Ġboolean":2777,"Ġsearch":2778,"ken":2779,"Ġorig":2780,"Ġer":2781,"Ed":2782,"EM":2783,"aut":2784,"ling":2785,"ality":2786,"ById":2787,"bed":2788,"ĉcase":2789,"46":2790,"ether":2791,"posit":2792,"Ġinvest":2793,"ĠOR":2794,"Ġsays":2795,"mission":2796,"AME":2797,"Ġtemp":2798,"oad":2799,"Ġrest":2800,"info":2801,"Ġinterest":2802,"Arg":2803,"Ġperform":2804,"pons":2805,"ĠView":2806,"Ġver":2807,"lib":2808,"(const":2809,"Util":2810,"Listener":2811,"arge":2812,"77":2813,"Ġmult":2814,"Ġdie":2815,"Ġsite":2816,"../../":2817,"EL":2818,"Ġvalues":2819,"Ġ})Ċ":2820,"pen":2821,"No":2822,"icro":2823,"Ġbeh":2824,"Ġ'./":2825,"acy":2826,"rec":2827,"()->":2828,"ĉĠĠĠ":2829,"\"))":2830,"Content":2831,"_W":2832,"plement":2833,"Ġwon":2834,"Ġvideo":2835,"adi":2836,"point":2837,"%%":2838,"03":2839,"Ġgl":2840,"erved":2841,"viron":2842,"IF":2843,"uted":2844,"ãĥ":2845,"'m":2846,"Ġcert":2847,"Ġprof":2848,"Ġcell":2849,"ari":2850,"Ġplayer":2851,"ais":2852,"Ġcost":2853,"Ġhum":2854,"(R":2855,"Ġoffic":2856,"ks":2857,".text":2858,"atures":2859,"Ġtotal":2860,"Ġ*/ĊĊ":2861,"ope":2862,"Ġstat":2863,"UM":2864,"Ġload":2865,"ights":2866,"Ġclear":2867,"uro":2868,"Ġtechn":2869,"upport":2870,"IR":2871,"Ġrow":2872,"Ġseem":2873,"Ġq":2874,"Ġshort":2875,"ĠNot":2876,"ipp":2877,"Group":2878,"section":2879,"max":2880,"irl":2881,"Ġoverride":2882,"Ġcompany":2883,"Ġdone":2884,"\");čĊ":2885,"Ġgre":2886,".Re":2887,"Ġbelie":2888,"rist":2889,"Ġhealth":2890,"ANT":2891,"()ĊĊ":2892,"ĠBe":2893,".value":2894,"ĠGr":2895,"ottom":2896,"Ġargs":2897,"PT":2898,"status":2899,"func":2900,"uments":2901,"-h":2902,"Number":2903,":čĊ":2904,"ĠLog":2905,"erver":2906,"Ġ),Ċ":2907,"ament":2908,"Ġobj":2909,"inc":2910,"Ġchildren":2911,"icy":2912,"IZ":2913,"ands":2914,"ably":2915,"Ġdistrib":2916,"Ġcur":2917,"erial":2918,"Ġdays":2919,"reated":2920,"rect":2921,"-l":2922,"irm":2923,"idden":2924,"omb":2925,"Ġinitial":2926,".js":2927,"Ġâ":2928,"Query":2929,"Ġonline":2930,"imal":2931,".con":2932,"au":2933,"Url":2934,"control":2935,"irection":2936,"Ġinstance":2937,"ORT":2938,"ĠFr":2939,"where":2940,"Ġjavax":2941,"Ġorgan":2942,"apter":2943,"Ġreason":2944,"options":2945,"59":2946,"ĠMar":2947,"(a":2948,"Ġwithin":2949,".âĢĿĊĊ":2950,"ODE":2951,"_DE":2952,"admin":2953,"ended":2954,"Ġdesign":2955,"ĠData":2956,"une":2957,"ĠFile":2958,"root":2959,"Ġcent":2960,"Ġarr":2961,"_add":2962,"len":2963,"page":2964,",'":2965,"_str":2966,"Ġbro":2967,"ability":2968,"outh":2969,"58":2970,"/c":2971,"pose":2972,"irtual":2973,"earch":2974,"_url":2975,"argin":2976,"Http":2977,"Ġschool":2978,"ava":2979,"Ġconsider":2980,".label":2981,"ĠArray":2982,"42":2983,"web":2984,"opt":2985,".println":2986,"ulation":2987,"Ġfunc":2988,"PL":2989,"Ġ\"\\":2990,"ĠText":2991,"actory":2992,"(function":2993,"null":2994,"Ġeng":2995,"down":2996,"Ġinclude":2997,"ĠEn":2998,"ĠDr":2999,"Ġdb":3000,"!!":3001,"side":3002,"Ġinit":3003,"quired":3004,"ĠShe":3005,"Column":3006,"react":3007,"Ġann":3008,"Ġstop":3009,"Ġlater":3010,"ĠThat":3011,"ention":3012,"df":3013,"UG":3014,"ILE":3015,"Ġclient":3016,"raft":3017,"ffer":3018,"POST":3019,"elper":3020,"Ġlove":3021,"quote":3022,"oud":3023,"Ġjson":3024,"Ġable":3025,"Ġmen":3026,"AX":3027,"ĠCopyright":3028,"Ã¶":3029,"avig":3030,"req":3031,"Client":3032,"});Ċ":3033,".Com":3034,"erc":3035,"ilt":3036,"pecial":3037,"_com":3038,"room":3039,".Name":3040,"Ġgive":3041,"amb":3042,"ike":3043,"Ġcondition":3044,"client":3045,"ators":3046,":\"":3047,"Ġcopy":3048,"uture":3049,"iversity":3050,"ernal":3051,"{{":3052,"ĠCan":3053,"ounc":3054,"do":3055,"Ġocc":3056,"Ġappro":3057,"thers":3058,"ze":3059,"Ġeither":3060,"ĠFl":3061,"Ġimportant":3062,"Ġlead":3063,"attr":3064,"ART":3065,"Equal":3066,"Ġda":3067,"etch":3068,"entity":3069,"Ġfamily":3070,"adding":3071,"Ġoption":3072,"Ġexist":3073,"ica":3074,"ĠObject":3075,"69":3076,"'ve":3077,"vers":3078,"itional":3079,"67":3080,"output":3081,"ĠTrue":3082,"ĠOF":3083,"_time":3084,"Ġoffer":3085,"Ġ});ĊĊ":3086,"HER":3087,"egin":3088,"\"\"":3089,"Ġwater":3090,"Ġche":3091,"ĠMy":3092,"ored":3093,"Ġstep":3094,"ances":3095,"CK":3096,"AY":3097,"à¸":3098,"struction":3099,"(C":3100,"300":3101,"ouch":3102,"Stream":3103,"active":3104,"ama":3105,"Entity":3106,"product":3107,"(){Ċ":3108,"Ġgovernment":3109,"ĠID":3110,"ajor":3111,"And":3112,"Ġdisplay":3113,"Ð»":3114,"Ġtimes":3115,"Ġfour":3116,"Ġfar":3117,"Ġpresent":3118,"ĠNS":3119,"Ġ\\Ċ":3120,"uest":3121,"Ġbas":3122,"echo":3123,"child":3124,"ifier":3125,"Handler":3126,"Ġlib":3127,"Property":3128,"translation":3129,"Ġroom":3130,"Ġonce":3131,"Ġ[]":3132,"center":3133,"================================":3134,"Ġresults":3135,"Ġcontinue":3136,"Ġtalk":3137,"_get":3138,"Ġgrow":3139,".sw":3140,"eb":3141,"ĠPublic":3142,"OP":3143,"ecute":3144,"ols":3145,"Ġ**":3146,"\");ĊĊ":3147,"Ġmass":3148,"ured":3149,".class":3150,"omic":3151,"Ġmean":3152,"ips":3153,"Ġaut":3154,");čĊčĊ":3155,"Ġuntil":3156,"Ġmarket":3157,"Ġarea":3158,"uit":3159,"Ġlength":3160,"ĠWith":3161,"structor":3162,"event":3163,"\"><":3164,"ĠSp":3165,"IV":3166,"Ġmus":3167,"iff":3168,"Ġkind":3169,"author":3170,"ounds":3171,"mb":3172,"_key":3173,"41":3174,"width":3175,"pository":3176,"Ġlight":3177,"uk":3178,"Row":3179,"ohn":3180,"alf":3181,"vironment":3182,"apper":3183,"ollections":3184,"Ġside":3185,"_info":3186,"Ġexample":3187,"imary":3188,"Ġwr":3189,"Ġcamp":3190,"cribe":3191,"255":3192,"\"/":3193,"Ġmiss":3194,"way":3195,"Ġbased":3196,"Ġplan":3197,"Vis":3198,"omain":3199,"unk":3200,"Ġaway":3201,"UP":3202,"<T":3203,"OS":3204,"iod":3205,"ĠMon":3206,"âĢĻre":3207,"Ġlik":3208,"Ã§":3209,"ively":3210,".v":3211,"imer":3212,"izer":3213,"Sub":3214,"Ġbutton":3215,"ĠUp":3216,"Ġexperience":3217,"CL":3218,"Ġrender":3219,"_value":3220,"Ġnear":3221,"URL":3222,"alt":3223,"Ġcountry":3224,"ibility":3225,"57":3226,"(),Ċ":3227,"ead":3228,"Ġauthor":3229,"Ġspecific":3230,"base":3231,"(name":3232,"ones":3233,"ĠDo":3234,"Ġalong":3235,"year":3236,"Ġexpress":3237,".'":3238,"env":3239,"Ġbegin":3240,"Ġsoftware":3241,"Ġimp":3242,"Ġwin":3243,"Ã³n":3244,"Ġthing":3245,"Trans":3246,"ĠTHE":3247,"Ġ<?":3248,"Ġwhy":3249,"Ġdoesn":3250,"ij":3251,"ging":3252,"ĉg":3253,"Ġsingle":3254,"offset":3255,"arning":3256,"ograph":3257,"ley":3258,"_count":3259,"Ġanal":3260,"create":3261,"/m":3262,"ĠReg":3263,"98":3264,"unch":3265,"=$":3266,"isk":3267,"Ġrights":3268,"(M":3269,"Ġ\"\"\"Ċ":3270,"aper":3271,".model":3272,"Ġpo":3273,"empty":3274,"artment":3275,"Ġant":3276,"ĠWhen":3277,"Ġwomen":3278,"ĠEd":3279,"Ġseason":3280,"Ġdest":3281,"Ã£":3282,"(h":3283,"Ġpossible":3284,"Ġsever":3285,"Ġbtn":3286,"Ġdidn":3287,"Ġsent":3288,"Ġenc":3289,"Ġcommand":3290,"Ġ],Ċ":3291,"_x":3292,"Ġrecent":3293,"olution":3294,"vector":3295,"ĠBy":3296,"ĠMay":3297,"ĠAct":3298,"»¿":3299,"Ġmoney":3300,"INT":3301,"bsite":3302,"ĉp":3303,".čĊ":3304,"ï»¿":3305,"sl":3306,"attern":3307,"ĠClass":3308,"Ġtold":3309,"udio":3310,"current":3311,"Ġequ":3312,"Ġauto":3313,"ĠState":3314,"da":3315,"msg":3316,"));ĊĊ":3317,"Ġworking":3318,"Ġquery":3319,"ĠBr":3320,"Ġwindow":3321,"auth":3322,"only":3323,"ĉt":3324,"Ġleast":3325,"agn":3326,"Ġexpl":3327,"itter":3328,"aring":3329,"Ġcolumn":3330,"ĠGeneral":3331,"\":\"":3332,"eral":3333,"rior":3334,"Ġrecord":3335,"IB":3336,"EX":3337,"Ġdat":3338,"Ġmaking":3339,"ued":3340,"ĠCar":3341,"emp":3342,"\".":3343,"ĠMed":3344,"Ġclose":3345,"Ġpercent":3346,"Ġpast":3347,"(g":3348,":(":3349,"Ġwrite":3350,"Ġmove":3351,"Ġpat":3352,"Control":3353,".To":3354,"Ġvi":3355,"*/Ċ":3356,"inate":3357,"'ll":3358,"aged":3359,"Null":3360,"Ġspecial":3361,"IZE":3362,"Ġcity":3363,"/*Ċ":3364,"ĠEng":3365,"ixed":3366,"inary":3367,"py":3368,"Ġeff":3369,"ario":3370,"Ġtell":3371,"avor":3372,"Ġselect":3373,"level":3374,"imum":3375,"oper":3376,"Builder":3377,"IP":3378,"'),Ċ":3379,"esc":3380,"Ġfont":3381,"\";ĊĊ":3382,"ĠAm":3383,"ished":3384,"ills":3385,"Inter":3386,"OW":3387,"Ġcourse":3388,"Ġlate":3389,"iddle":3390,"43":3391,"Ġamount":3392,"Ġasync":3393,"ino":3394,"cul":3395,"Ġì":3396,"andle":3397,"_user":3398,"Ġben":3399,"ĠCal":3400,"Ġ$_":3401,"ĠRep":3402,"Ġenough":3403,"Token":3404,".user":3405,"(j":3406,"Sc":3407,"Width":3408,"now":3409,"atform":3410,"Ġlooking":3411,"Ġhold":3412,"Module":3413,"ITY":3414,"vo":3415,"ison":3416,".Data":3417,"yc":3418,"Ġpot":3419,"ĠTrump":3420,"idual":3421,"ides":3422,"rt":3423,"Ġproperty":3424,"ĠĠĠĠĠĠĠĠĠĠĠĠĠĠĠĠĠĠĠĠĠĠĠĠĠĠĠĠĠĠĠĠĠĠĠĠĠĠĠĠĠĠĠ":3425,"amework":3426,"go":3427,"Ġlow":3428,"Ġpara":3429,"Ġprice":3430,"ury":3431,"Ġtoday":3432,"roy":3433,"Ġ'/":3434,"Ġpolit":3435,"Ġ''":3436,"ymb":3437,"Ph":3438,"Ġadv":3439,"Ġattack":3440,"ĠSte":3441,"ROM":3442,"400":3443,"ana":3444,"Ġmeans":3445,"Ġstory":3446,"ids":3447,"aken":3448,"Ġmeet":3449,"Ġmom":3450,"ĠâĢĺ":3451,"Ġ?>":3452,"Ġden":3453,"obile":3454,"change":3455,"ĠĠĠĠĠĠĠĠĠĠĠĠĊ":3456,"ici":3457,"na":3458,"ĠForm":3459,"Ġsort":3460,"Select":3461,"pare":3462,"Ġthought":3463,"_con":3464,"Ġtask":3465,"ocus":3466,"ĠDE":3467,"ĠMin":3468,"Ġopt":3469,"ĉbreak":3470,"umer":3471,"KE":3472,"then":3473,"Ġdet":3474,"ĠTest":3475,"ports":3476,"Ġreview":3477,"('/":3478,"move":3479,"Ġswitch":3480,"ERT":3481,"patch":3482,"annot":3483,"ãĤ":3484,"Ġabove":3485,"itive":3486,"56":3487,"Ġquestion":3488,"ĠQu":3489,"ãĢĤĊĊ":3490,"gle":3491,"Ġword":3492,"Ġprovide":3493,"ĠReturn":3494,"Ġresearch":3495,"Ã£o":3496,"ustr":3497,"Ġpublish":3498,"chema":3499,"}}":3500,"ĠCON":3501,"-in":3502,"allback":3503,"Ġcover":3504,"\\\\":3505,"color":3506,"ĠIS":3507,"Ġwhether":3508,"imate":3509,"isc":3510,"Bar":3511,"Ġdiv":3512,"Be":3513,"ourn":3514,"Ġhaving":3515,"lem":3516,"player":3517,"abs":3518,"amera":3519,"ney":3520,"Ġexc":3521,"gether":3522,"plied":3523,"ao":3524,"[$":3525,"Ġ++":3526,"ipe":3527,"show":3528,"/d":3529,"[:":3530,"agement":3531,"lev":3532,"_ID":3533,"97":3534,"rary":3535,"ades":3536,"_se":3537,"ause":3538,"Ġemploy":3539,"Ġ*/čĊ":3540,"Ġfre":3541,"Ġ'@":3542,"Ġcomplet":3543,"Ġlarge":3544,"ral":3545,"\\x":3546,"Ġfac":3547,"<String":3548,"Ġcreated":3549,"uper":3550,".state":3551,"Ġhost":3552,"eneric":3553,"/b":3554,"(!":3555,"while":3556,"ias":3557,"BUG":3558,"Ġ);ĊĊ":3559,"Ġrole":3560,"Reg":3561,"ĠColor":3562,"Start":3563,"Ġporn":3564,"top":3565,"Ġweb":3566,"Ġdev":3567,"Ġdeal":3568,"++)Ċ":3569,"Integer":3570,"position":3571,".on":3572,"Ġ(\"":3573,"ä¸":3574,"Ġproblem":3575,"sv":3576,"Ġpress":3577,"ABLE":3578,"ATION":3579,"ĠSee":3580,"anch":3581,"Ġthough":3582,"leep":3583,"Ġ<!--":3584,"Ġpoints":3585,"ĠĠĠĠĠĠĠĠĠĠĠĠĠĠĠĠĠĠĠĠĠĠĠĠĠ":3586,".J":3587,"Ġ::":3588,"ptr":3589,"DB":3590,"++;Ċ":3591,".png":3592,"node":3593,"soft":3594,"pond":3595,"Ġever":3596,"----------------------------------------------------------------":3597,"Menu":3598,"('#":3599,"Ġservices":3600,"pg":3601,"})Ċ":3602,"params":3603,"Ġactually":3604,"Ġ\"/":3605,"Empty":3606,"Method":3607,"Ġident":3608,"unic":3609,"Ġmillion":3610,"Ġaff":3611,"style":3612,"Ġconc":3613,"ios":3614,"ignment":3615,"ULT":3616,"Pr":3617,"\";čĊ":3618,"Ġunderstand":3619,"uary":3620,"Ġhappen":3621,"Ġserver":3622,"ĠCo":3623,"SC":3624,"Ġles":3625,"Ġfiles":3626,"Grid":3627,"sql":3628,"Ġoften":3629,"Ġinfo":3630,"_tr":3631,"src":3632,"ony":3633,"Ġspace":3634,"umb":3635,"Ġpassword":3636,"Ġstore":3637,",ĊĊ":3638,"ĠWhat":3639,"ged":3640,"ĠFalse":3641,"Us":3642,"swer":3643,"_index":3644,"Ġformat":3645,"most":3646,"sm":3647,"New":3648,"Ġdetails":3649,"Ġprob":3650,"ĠAND":3651,"()čĊ":3652,"ilar":3653,"Ġ${":3654,"rypt":3655,".Collections":3656,"$this":3657,"ĠFree":3658,"_of":3659,"(false":3660,"dated":3661,"Ġ>>":3662,"Ġface":3663,"CTION":3664,"Ġsave":3665,"Ġtyp":3666,"dev":3667,"(\"#":3668,"AGE":3669,"container":3670,"edit":3671,"QL":3672,"Ġitems":3673,"Ġsocial":3674,"ien":3675,"ĠReact":3676,").ĊĊ":3677,"Ġmar":3678,"Ġredu":3679,"ĠRE":3680,".put":3681,"Ġmajor":3682,"Cell":3683,"next":3684,"Ġexpected":3685,"Ġyet":3686,"Ġindiv":3687,"tributes":3688,"atis":3689,"amed":3690,"Ġfood":3691,"Source":3692,"(string":3693,"Ġ+Ċ":3694,"ites":3695,"dr":3696,"Ġmembers":3697,"Ġcomb":3698,"items":3699,"ĠPer":3700,"TH":3701,"=True":3702,"Ġbar":3703,"_SE":3704,"comm":3705,"(w":3706,")ĊĊĊ":3707,"Ġsend":3708,"Ġinc":3709,"unsigned":3710,"FA":3711,"Ġparams":3712,"apping":3713,"ros":3714,"ugin":3715,"fa":3716,"Ġconnection":3717,"Ġ};ĊĊ":3718,"Ġbecome":3719,"Mode":3720,"Ġev":3721,"Ġdiff":3722,"ĠUnited":3723,"Height":3724,"fully":3725,"images":3726,"Ġmakes":3727,"Ġglobal":3728,"Ġcontact":3729,"':Ċ":3730,"Ġabs":3731,"Ð°Ð":3732,"float":3733,"Ġexcept":3734,"ĠPol":3735,"Child":3736,"typ":3737,"Ġcertain":3738,"iÃ³n":3739,"OUT":3740,"Ġimpro":3741,"iles":3742,"Ġ-->Ċ":3743,"ĠPart":3744,"values":3745,"oss":3746,"/**":3747,"ilit":3748,"ĠEvent":3749,"curity":3750,"ster":3751,"Ġcharacter":3752,"198":3753,"Ġnews":3754,"Ġ\",":3755,"Ġdevice":3756,"cel":3757,"login":3758,"heet":3759,"Default":3760,"@\"":3761,"ĉĠ":3762,"click":3763,"(value":3764,"ĠAb":3765,"Ġprevious":3766,"ERROR":3767,"ocal":3768,"Ġmaterial":3769,"Ġbelow":3770,"ĠChrist":3771,"Ġmedia":3772,"cover":3773,"ĠUI":3774,"Ġfail":3775,"Ġblack":3776,"Ġcomponent":3777,"ĠAmerican":3778,"Ġadded":3779,"Ġbuy":3780,"stit":3781,"Ġcame":3782,"Ġdelete":3783,"property":3784,"oding":3785,"Ġcard":3786,"rops":3787,"Ġhttps":3788,"Ġroot":3789,"Ġhandle":3790,"CC":3791,"Back":3792,"emplate":3793,"Ġgetting":3794,"_by":3795,"mail":3796,"_sh":3797,".assert":3798,"ĠDec":3799,"(true":3800,"Ġcomput":3801,"Ġclaim":3802,"'=>":3803,"ĠSub":3804,"Ġair":3805,"ops":3806,"nav":3807,"ements":3808,"(id":3809,"Ġenter":3810,"anged":3811,"End":3812,"Ġlocation":3813,"Ġnight":3814,"Ġdoing":3815,"ĠRed":3816,"lin":3817,"}ĊĊĊ":3818,"vider":3819,"Ġpick":3820,"Ġwatch":3821,"essages":3822,"Ġhuman":3823,"Ġdam":3824,"pend":3825,"dir":3826,"Ġtax":3827,"Ġgirl":3828,"reet":3829,"Ġbox":3830,"Ġstrong":3831,"(v":3832,"rel":3833,"Ġinterface":3834,"Ġmsg":3835,"fect":3836,"_at":3837,"Ġhouse":3838,"Ġtrack":3839,"');ĊĊ":3840,"je":3841,"ĠJohn":3842,"istr":3843,"(S":3844,"ube":3845,"Ġce":3846,"itted":3847,"VER":3848,"*)":3849,"parent":3850,"Ġapplication":3851,"any":3852,".swing":3853,"Ġpack":3854,"\\u":3855,"Ġpract":3856,"Ġsection":3857,"ctx":3858,"Ġunsigned":3859,".Point":3860,"ĠOne":3861,"Ä±":3862,"iple":3863,"aid":3864,"Ñĥ":3865,"Vector":3866,"byte":3867,"Ġwait":3868,"ĠÃł":3869,"Ã¥":3870,"Ġtogether":3871,"Ġthrows":3872,"FO":3873,"'))":3874,"host":3875,"ising":3876,".view":3877,"Ġterms":3878,"framework":3879,"-r":3880,"Ġapply":3881,"Ġsession":3882,"Options":3883,"uggest":3884,"Ġothers":3885,"witter":3886,"Ġfund":3887,"Init":3888,"__(":3889,"ensor":3890,"GET":3891,"Ġseveral":3892,"ii":3893,"[j":3894,"IO":3895,"Ġtemplate":3896,"Position":3897,"Ġecon":3898,"achine":3899,"Ġil":3900,".spring":3901,"main":3902,"elt":3903,"iment":3904,"Rec":3905,"mm":3906,"ĠUniversity":3907,"ursor":3908,"ĠĠĠĠĠĠĠĠĠĠĠĠĠĠĠĠĠĠĠĠ":3909,"GL":3910,"icture":3911,"ithub":3912,"cer":3913,"cast":3914,"From":3915,"ales":3916,"Ġsubject":3917,"password":3918,"ny":3919,"Ġesc":3920,".write":3921,"ï¼Į":3922,"What":3923,".H":3924,"Ġhistory":3925,"ĠFe":3926,"Ġindividual":3927,"unit":3928,"Ġ-->":3929,"Ġdu":3930,"IST":3931,"Ġusers":3932,"fs":3933,"false":3934,"unt":3935,"Title":3936,"Ġmot":3937,"Ġfuture":3938,"ached":3939,"Ġstarted":3940,"Ġmode":3941,"Ġ'<":3942,"_array":3943,"Ġax":3944,"'];Ċ":3945,"ires":3946,"There":3947,"ught":3948,"tml":3949,"posed":3950,"icult":3951,"Ġtook":3952,"Ġgames":3953,"Ġ}}":3954,"Ġ?>Ċ":3955,"Ġproducts":3956,"Is":3957,"Ġbad":3958,"ĠDes":3959,".path":3960,"'ĊĊ":3961,"ĠPost":3962,"avel":3963,"(:":3964,"150":3965,"Ġneeds":3966,"Ġknown":3967,"Fl":3968,"Ġexec":3969,"Ġseen":3970,"51":3971,"ume":3972,"Ġborder":3973,"Ġlive":3974,"temp":3975,"Per":3976,"Ġvariable":3977,"iet":3978,"ĠDef":3979,"Ġge":3980,"eme":3981,"_back":3982,"first":3983,"Ġprovided":3984,"////////////////////////////////":3985,"Ġfilename":3986,"Ġhope":3987,"uly":3988,"auto":3989,"find":3990,"_string":3991,"btn":3992,"itude":3993,"Attribute":3994,"Ġyoung":3995,".txt":3996,"Ġwebsite":3997,"ĠProp":3998,"Ġey":3999,">();Ċ":4000,"ional":4001,"ARR":4002,"ictionary":4003,"urther":4004,".</":4005,"ALL":4006,"Ġstudy":4007,"ili":4008,"Ġnetwork":4009,"yl":4010,"istance":4011,"OK":4012,"NU":4013,"rest":4014,"ĠST":4015,"icrosoft":4016,"Ġlimit":4017,"Ġcut":4018,"():Ċ":4019,"Ġcou":4020,"ogn":4021,"Ġsizeof":4022,"ival":4023,"Ġwent":4024,".z":4025,"Link":4026,"Ġfire":4027,"Ġacross":4028,"Ġcommunity":4029,"region":4030,"NE":4031,"Ref":4032,"Ġofficial":4033,"Ġvisit":4034,"olve":4035,"Ġreceived":4036,"Ġtoken":4037,"Ġmonths":4038,"Ġanim":4039,"Ġparticular":4040,"styles":4041,"ico":4042,"Ġess":4043,"87":4044,".Control":4045,"ĠÃ©":4046,"ball":4047,"Ġlearn":4048,"inding":4049,"Var":4050,"Ġdecl":4051,"(err":4052,"LECT":4053,"One":4054,"pha":4055,"Ġ~":4056,"fort":4057,"asure":4058,"Ġmind":4059,"ĠEnd":4060,"Check":4061,"Ġquick":4062,"\"),":4063,"AND":4064,"utions":4065,"Base":4066,"________":4067,"Ġcomment":4068,"INE":4069,"âĢĻve":4070,"But":4071,"ĠEl":4072,"ĠUs":4073,"Ġadmin":4074,"mark":4075,"ĠName":4076,"`Ċ":4077,"ĠType":4078,"amic":4079,"pc":4080,"loor":4081,"FT":4082,"Ġopp":4083,"cket":4084,")->":4085,"tx":4086,"Ġpur":4087,"uel":4088,"ymbol":4089,"uation":4090,"anger":4091,"Ġbackground":4092,"ecess":4093,"efined":4094,"........":4095,"Ġdescription":4096,"Ġrepresent":4097,"\"));Ċ":4098,"pression":4099,"rowser":4100,"Ġseries":4101,"wards":4102,"52":4103,"($_":4104,"aise":4105,"Ġhot":4106,"acity":4107,"ries":4108,"actions":4109,"Create":4110,"adio":4111,"amples":4112,"Ġoriginal":4113,"ensive":4114,"font":4115,"stream":4116,"ï»¿using":4117,".springframework":4118,"001":4119,"server":4120,"Ġbill":4121,"ACK":4122,"ilename":4123,"Ġframe":4124,"Ġ=Ċ":4125,"Edit":4126,"adius":4127,"Ġdraw":4128,"anks":4129,"Ġdeter":4130,"Ġcomes":4131,"_int":4132,"Ġforeach":4133,"angle":4134,"Ġelect":4135,"pected":4136,"Header":4137,"istration":4138,"False":4139,"ĠGame":4140,"Ġfilter":4141,"Activity":4142,"Ġlarg":4143,"inition":4144,"Ġ\"<":4145,"256":4146,"ised":4147,"Ġremove":4148,"ĠTrans":4149,"met":4150,"see":4151,"Format":4152,"Command":4153,"ĠEX":4154,"None":4155,"Ġfront":4156,"ASE":4157,"ĠRec":4158,"oundation":4159,"Ġvo":4160,"96":4161,"=\\\"":4162,"(*":4163,"Change":4164,".Write":4165,"group":4166,"ients":4167,"uy":4168,"****************************************************************":4169,"Ġdig":4170,"hr":4171,"(-":4172,"Ġgen":4173,"number":4174,"vec":4175,"urope":4176,"entry":4177,"LL":4178,"Ġste":4179,"Valid":4180,"'],":4181,"_param":4182,"Ġselected":4183,"Ġaccording":4184,"ĠDis":4185,"Ġutil":4186,"Buffer":4187,"_error":4188,"Ġassoci":4189,"_SIZE":4190,"Ġwor":4191,"Ġprintf":4192,"rag":4193,"Âł":4194,"DD":4195,"ĠVal":4196,"Ġactiv":4197,"Eng":4198,"etime":4199,"Ġvirtual":4200,"aign":4201,"aur":4202,"ĠPres":4203,"ĠException":4204,"Ġanything":4205,"ĠOff":4206,"Ġhours":4207,"Ġwar":4208,"Args":4209,"aging":4210,"Ġmodels":4211,"ĠTime":4212,"Ob":4213,"ams":4214,"joy":4215,"Ġearly":4216,".read":4217,"86":4218,"Ġcenter":4219,"ĠInitial":4220,"Ġlanguage":4221,"length":4222,"xy":4223,"Ġsn":4224,"Ġinf":4225,"Post":4226,"Ġago":4227,"Ġeasy":4228,"_code":4229,"ĠANY":4230,"_ch":4231,"Ġdownload":4232,"(T":4233,"aved":4234,"âĢĵ":4235,"Ġstudents":4236,"Ġfig":4237,"light":4238,"xx":4239,"Ġbuffer":4240,"ĠDep":4241,"ĠMath":4242,"ITH":4243,"Ġvari":4244,"Ġdue":4245,"Factory":4246,"Ġpor":4247,"Ġep":4248,"otype":4249,"Ġcannot":4250,"Ġwhite":4251,"<int":4252,"tern":4253,"Ġregister":4254,"Ġpred":4255,"clus":4256,"_date":4257,"Ġ/**":4258,"Ġauth":4259,"Ġ[]Ċ":4260,"Ġperiod":4261,"nown":4262,"Ġvot":4263,"Ġscreen":4264,"'d":4265,"Types":4266,"Ġtmp":4267,"ÐµÐ":4268,"ural":4269,"Ġbenef":4270,"_y":4271,"Ġnet":4272,"ĠStates":4273,"']['":4274,"ĠNe":4275,"ĠNOT":4276,"Ġneg":4277,"102":4278,"Ġcommon":4279,"scope":4280,"Ġcred":4281,"ges":4282,"_TYPE":4283,"Ġsuggest":4284,"oom":4285,".ĊĊĊ":4286,"Ġaccept":4287,"Ġrandom":4288,"erm":4289,"ĠVector":4290,"with":4291,"TER":4292,"(str":4293,"Ġrespons":4294,"Ġhit":4295,".Set":4296,"grid":4297,"ria":4298,"Ġclick":4299,"undle":4300,"Case":4301,"insert":4302,"Utils":4303,"Ġ\"\"\"":4304,"Ġimplement":4305,"atal":4306,"tempt":4307,"template":4308,"ocr":4309,"returns":4310,"Ġplayers":4311,"users":4312,"edef":4313,"ĠThese":4314,"Ġamong":4315,"Ġdeb":4316,"ha":4317,".getElement":4318,"Ġcirc":4319,"Ġanswer":4320,"Ġwalk":4321,"Ġtreat":4322,"ĠGe":4323,"ĠCreate":4324,"Ġage":4325,"Ġreq":4326,"OST":4327,"angular":4328,"Ñı":4329,"Ġfive":4330,"53":4331,"Ġdistributed":4332,"Ġfriend":4333,"TP":4334,"Ġclean":4335,"ows":4336,".Controls":4337,"dis":4338,"Ġwords":4339,".io":4340,"zy":4341,"Ġheader":4342,"ĠCheck":4343,"âĢĻm":4344,"just":4345,"holder":4346,"=\"<?":4347,"ĠGNU":4348,"ĠCol":4349,"imest":4350,"entic":4351,"{ĊĊ":4352,"Ġtre":4353,"last":4354,"la":4355,"ĠYork":4356,"Lo":4357,"Ġdiscuss":4358,"ĠGod":4359,"Ġissue":4360,"rew":4361,"Window":4362,"Ġland":4363,"120":4364,"Ġstream":4365,"ĠPar":4366,"Ġquality":4367,"Par":4368,"_num":4369,"54":4370,"Ġsal":4371,"elves":4372,"ORD":4373,"(user":4374,"Ġworks":4375,"Ġhalf":4376,"enses":4377,"vas":4378,"Ġpolice":4379,"(\"/":4380,"ua":4381,"Ġsimple":4382,"Address":4383,"Ġempty":4384,"esh":4385,"128":4386,"Update":4387,"ĠCreated":4388,"('.":4389,").Ċ":4390,"ĠĠĠĠĠĠĠĠĠĠĠĠĠĠĠĠĠĠ":4391,"Ġagre":4392,"ĠFROM":4393,"Ġcook":4394,"Ġeverything":4395,"ilities":4396,".status":4397,"Ġrelations":4398,"extern":4399,"Ġnothing":4400,"Ġrunning":4401,"ĉvoid":4402,"RI":4403,"_a":4404,"_CON":4405,"por":4406,".sub":4407,"require":4408,"ĠCity":4409,"ĠWest":4410,"Ġmor":4411,"store":4412,"Equals":4413,"oder":4414,"Ġna":4415,"Ġ[[":4416,"Ġ('":4417,"ĠDon":4418,"ERS":4419,"/p":4420,".json":4421,"abor":4422,"Ġsomeone":4423,"_text":4424,".css":4425,".Tab":4426,"ĠSome":4427,"ato":4428,"double":4429,"Ġshare":4430,"(void":4431,"_dir":4432,"Ġur":4433,"Stack":4434,"ĠWorld":4435,".X":4436,"stract":4437,"How":4438,".Generic":4439,"icles":4440,"Ġentry":4441,"Ġchanges":4442,"Ġpersonal":4443,"(A":4444,"Ġoffset":4445,"_ptr":4446,"Ġpie":4447,"ĠJan":4448,"-group":4449,"module":4450,"Items":4451,"ĠHowever":4452,"verage":4453,".Font":4454,"Ġevents":4455,".min":4456,"Ġinvol":4457,"za":4458,"Ġwhole":4459,"Ġneeded":4460,"Ġlikely":4461,"rief":4462,"ORM":4463,"version":4464,"Ġfight":4465,"Ġein":4466,"Frame":4467,"197":4468,"gen":4469,"ĠOut":4470,"avigation":4471,"Length":4472,"illed":4473,"quence":4474,"Ġ!==":4475,"ĠSoftware":4476,"Ġwriting":4477,"Ġrate":4478,"'],Ċ":4479,"Panel":4480,"inner":4481,"Ġ[\"":4482,"Ġtw":4483,"cd":4484,"Ġ;Ċ":4485,"_state":4486,"ĠSm":4487,"ĠMark":4488,"))ĊĊ":4489,"prot":4490,"ĠMr":4491,"method":4492,"ustomer":4493,"Icon":4494,"Ġcorrect":4495,"(object":4496,"ĠMore":4497,"Ġfall":4498,"Ġvol":4499,"Ġdevelopment":4500,"ently":4501,"Ġsi":4502,"medi":4503,"ving":4504,"PP":4505,"aker":4506,"Ġindu":4507,"Ġelif":4508,"Ġpret":4509,"Ġbelieve":4510,"ns":4511,"omet":4512,"123":4513,"ĠIntern":4514,"Rect":4515,"So":4516,".error":4517,"Read":4518,"Ġfeatures":4519,"Ġminutes":4520,"---":4521,"asing":4522,"cret":4523,"\">čĊ":4524,".annot":4525,"Ġcollection":4526,"'.":4527,"Ġsimilar":4528,"Ġtaken":4529,"(\"%":4530,"Order":4531,"']Ċ":4532,"-md":4533,"ĠTH":4534,"aced":4535,"Ġisn":4536,"/j":4537,"Ġson":4538,"graph":4539,"ĠInteger":4540,"Ġnecess":4541,"reen":4542,"Ġum":4543,"Ġ\\<":4544,"Ġmoment":4545,"Ġbring":4546,"Ġindic":4547,"ysis":4548,"Level":4549,"verse":4550,"urrenc":4551,"_test":4552,"Ġentire":4553,"Down":4554,"Ġ}ĊĊĊ":4555,"(result":4556,"ĠRead":4557,"Ã¨":4558,"Mod":4559,"Ġtrying":4560,"\"),Ċ":4561,"Ġmember":4562,"ĠCor":4563,"ODO":4564,"-control":4565,"untime":4566,"ĠSim":4567,"Dialog":4568,"plot":4569,"_on":4570,"Ġphys":4571,"}/":4572,"Ġnamespace":4573,"ĉčĊ":4574,"acc":4575,"Player":4576,"ARE":4577,"89":4578,"Ġfoot":4579,"Ġboard":4580,"part":4581,"Ġsus":4582,"wise":4583,"ĠMc":4584,"Ġpush":4585,"ATA":4586,"Ġplease":4587,"ried":4588,"weet":4589,"bit":4590,"ided":4591,"VE":4592,"ĠSw":4593,"UB":4594,"Ġtypes":4595,"edia":4596,"Ġclos":4597,"acebook":4598,"When":4599,"Ġedit":4600,"igger":4601,"Ġenerg":4602,"Container":4603,"Ġphot":4604,"ĠCount":4605,"ĠEurope":4606,".Is":4607,"ĠRuss":4608,"peed":4609,"ĠStr":4610,"Ġpy":4611,"Ġcult":4612,"Ġdefined":4613,"ccount":4614,"Ġobt":4615,".Location":4616,"Ġthread":4617,"ille":4618,"Ġinstead":4619,"strong":4620,"ĠSec":4621,"URE":4622,"Ġidea":4623,".se":4624,"emy":4625,"selected":4626,"Connection":4627,"acing":4628,"thread":4629,".next":4630,"Ġcoll":4631,"Ġfilm":4632,"istic":4633,"Ġcompet":4634,"Ġconn":4635,"though":4636,"Ġcompan":4637,"ocket":4638,"Ġteach":4639,"=(":4640,"Ġphone":4641,"Ġactive":4642,"79":4643,"delete":4644,"101":4645,"tries":4646,"Ġmo":4647,"Ġdeath":4648,"});ĊĊ":4649,"ocol":4650,"Widget":4651,"Ġarticle":4652,"rodu":4653,"andid":4654,"Ñĭ":4655,"ĠCr":4656,"ka":4657,"():":4658,"lood":4659,"ĉĉĉĊ":4660,"Ġalmost":4661,"Ġsell":4662,"ervlet":4663,"rip":4664,"Unit":4665,"Ġapplic":4666,"Ġconnect":4667,"Ġfeature":4668,"Ġvia":4669,"'),":4670,"Ġlim":4671,"ĠĠĠĠĠĠĠĠĠĠĠĠĠĠĠĠĠĠĠĠĠĠĠĠĠĠĠĠĠĠĠĠĠĠĠĠĠĠĠĠĠĠĠĠĠĠĠ":4672,"ĠGu":4673,"Engine":4674,"Ġens":4675,"Ġenvironment":4676,"block":4677,"HERE":4678,"NULL":4679,"gy":4680,"tag":4681,")).":4682,"exp":4683,"Ġcompl":4684,"Ġinstall":4685,"Ġcomplete":4686,"queue":4687,"atural":4688,"Ġgeneral":4689,"thon":4690,"Ġasked":4691,"ores":4692,"(res":4693,"Ġreserved":4694,"SP":4695,"ĠâĢ¦":4696,"ÅĤ":4697,"Ġsignific":4698,"Off":4699,"ĠĠĠĠĠĠĠĠĠĠĠĠĠĠĠĠĠĠĠĠĠĠĠĠĠĠĠĠĠ":4700,"ĠAg":4701,"ĠJust":4702,"ĠError":4703,"Ġinfl":4704,"adata":4705,"Ġicon":4706,"asks":4707,"''":4708,"_LO":4709,"?.":4710,"account":4711,"Ġ(*":4712,"')ĊĊ":4713,"rap":4714,"_var":4715,"ĠFOR":4716,"Ġparty":4717,"ĠYour":4718,"cat":4719,"stry":4720,".new":4721,"boot":4722,"ĠNov":4723,"Ġvector":4724,"Ġnormal":4725,"Ġfurther":4726,"Repository":4727,"800":4728,"Ġdatabase":4729,"attle":4730,"Ġmusic":4731,"Ġspeed":4732,"Ġdoc":4733,"process":4734,"IGHT":4735,".parse":4736,"Ġtaking":4737,"Ġviol":4738,"ceed":4739,"ĠAfter":4740,"Ġforward":4741,"Ġcrit":4742,"\"/>Ċ":4743,"rot":4744,"Ġfailed":4745,"efore":4746,"Ġconcern":4747,"oe":4748,"ba":4749,"Ġsender":4750,"Ġterm":4751,"has":4752,"=\"#":4753,"Ġpotential":4754,"Num":4755,"Ġpublished":4756,".close":4757,"ĠImage":4758,"straint":4759,"UD":4760,"ĠOb":4761,"Ġprobably":4762,"lim":4763,"\":Ċ":4764,"olume":4765,"Ġconsum":4766,"76":4767,"ague":4768,"ensions":4769,"Ġinvestig":4770,"-year":4771,"');":4772,"-sm":4773,"Ġenjoy":4774,"orig":4775,"ering":4776,"cp":4777,"leased":4778,"plements":4779,"Ġreturns":4780,"pat":4781,"BO":4782,"ĠHouse":4783,".Label":4784,"Ġweight":4785,"ighb":4786,"Ġconditions":4787,"Ġexception":4788,"description":4789,"Ġtrad":4790,"-to":4791,"Ġ{}":4792,"Ġmodule":4793,"END":4794,".ap":4795,".props":4796,"Ġconstructor":4797,"aves":4798,"Ġfavor":4799,"ĠNow":4800,";i":4801,"ĠMain":4802,"_k":4803,"eries":4804,"âĢĻll":4805,"transform":4806,"imestamp":4807,"Pre":4808,"Ġmer":4809,".res":4810,"stant":4811,"Location":4812,"_NAME":4813,"Ġloss":4814,"ĠĊĊ":4815,"net":4816,"Ġengine":4817,"Block":4818,"Ġissues":4819,"Ġparse":4820,"ĠBar":4821,"Ġstay":4822,"ĠJSON":4823,"Ġdom":4824,"airs":4825,"wner":4826,"Ġlower":4827,"\",čĊ":4828,"ĠDem":4829,"ufact":4830,"Ġps":4831,"Ġperfect":4832,"RL":4833,"Ġeduc":4834,"ls":4835,"emory":4836,"ARRANT":4837,"uge":4838,"Ġexact":4839,".key":4840,"alled":4841,"ech":4842,"ief":4843,"\\/":4844,"oke":4845,"Ġformer":4846,"alloc":4847,"Ġsix":4848,"ida":4849,"Ġmargin":4850,"Ġheart":4851,"ald":4852,"pack":4853,".getElementById":4854,"ĠWARRANT":4855,"Ġrather":4856,"Ġbuilding":4857,"erman":4858,"lice":4859,"Ġquestions":4860,"izes":4861,"lege":4862,"irectory":4863,"Ġje":4864,"Ġcas":4865,"props":4866,"utf":4867,"Ġsecurity":4868,"Ġhowever":4869,"weight":4870,"Ġinside":4871,"Ġpresident":4872,"Char":4873,"ĠWITH":4874,".map":4875,"Ġgraph":4876,"Ġtag":4877,"_status":4878,"Ġattempt":4879,"opp":4880,"uses":4881,"ĉconst":4882,"Ġround":4883,",$":4884,"Ġfriends":4885,"Email":4886,"?>":4887,"Resource":4888,"KEY":4889,"osp":4890,".query":4891,"ĠNorth":4892,"ables":4893,"istrib":4894,"_class":4895,"ello":4896,"That":4897,"Ðº":4898,"pecially":4899,"ĠPresident":4900,"Ġcampaign":4901,"Ġalt":4902,"area":4903,"Ġchall":4904,"Ġopport":4905,".Con":4906,"Ġenergy":4907,"like":4908,".string":4909,"ington":4910,")*":4911,"yy":4912,"Ġprofession":4913,"irth":4914,"Ġseg":4915,"æľ":4916,"Ġhor":4917,"iers":4918,"can":4919,"Ġbehind":4920,"Product":4921,"fg":4922,"ĠSk":4923,".jpg":4924,"?:":4925,"];ĊĊ":4926,"Ġcallback":4927,"ĠHttp":4928,"ÑĮ":4929,"long":4930,"MS":4931,"ATH":4932,"Ġraise":4933,"Ġwanted":4934,"rown":4935,"utor":4936,"lt":4937,"]=":4938,"eline":4939,"MA":4940,"Ġsepar":4941,"cs":4942,"semb":4943,"Dis":4944,"bserv":4945,"ĠWill":4946,"Ġpolicy":4947,"Ġthird":4948,"phone":4949,"Ġbed":4950,"/g":4951,".__":4952,"ĠInc":4953,"izing":4954,".remove":4955,"instance":4956,".type":4957,"Ġserv":4958,"Each":4959,"Ġhar":4960,"ĠMessage":4961,"(key":4962,"SELECT":4963,"Pos":4964,"));čĊ":4965,"Ġrecomm":4966,"Ġtraining":4967,"ĠEnt":4968,"ĠChar":4969,"icht":4970,"(file":4971,"Ġprior":4972,"Game":4973,"Ġexit":4974,"Params":4975,".core":4976,"PC":4977,"nes":4978,"anced":4979,"(request":4980,"Password":4981,"}>Ċ":4982,"Ġmag":4983,"Ġrelease":4984,"Ġshall":4985,"udent":4986,"ĠSouth":4987,"ando":4988,":'":4989,".TabIndex":4990,"sk":4991,"anner":4992,"isset":4993,"Ġoutside":4994,"ledge":4995,"Ġå":4996,"ĠRob":4997,"Ġimm":4998,"!Ċ":4999,"ĠWeb":5000,"Des":5001,"BC":5002,"ancial":5003,"Route":5004,"Dec":5005,"ferences":5006,"Ġpurch":5007,"ĠModel":5008,"ctor":5009,"gn":5010,"_start":5011,"_un":5012,".*":5013,"ises":5014,"Ġground":5015,"Ġunique":5016,"Ġbeaut":5017,"{\"":5018,"Ġpour":5019,"ĠOct":5020,"Ġtree":5021,"sets":5022,"_res":5023,"')->":5024,"_reg":5025,"(\"\\":5026,"Ġbyte":5027,"Bl":5028,"Ġdating":5029,"Ġmatter":5030,"ĠRem":5031,"Ġ'../":5032,"ĠAug":5033,"ĠLa":5034,"Ġ$(":5035,"ournal":5036,"111":5037,"iam":5038,"Ġshows":5039,"write":5040,"Ġball":5041,"Ġsimply":5042,"Ġfast":5043,"Ġmemory":5044,"ASS":5045,"ĠOf":5046,"oved":5047,"ante":5048,"aul":5049,"istry":5050,")));Ċ":5051,"Ġfit":5052,"<string":5053,"Ġpolitical":5054,"ancel":5055,"_.":5056,"card":5057,".current":5058,"och":5059,"_image":5060,"\\t":5061,"#Ċ":5062,"(L":5063,"Ġindustry":5064,"coming":5065,"Ġextra":5066,"600":5067,"Ġreported":5068,".start":5069,"Ġresources":5070,"Ġimg":5071,"flow":5072,"_EX":5073,"(null":5074,"ĠPre":5075,"Ġwrong":5076,"interface":5077,"Parameter":5078,"ners":5079,"á»":5080,"ture":5081,"ersist":5082,"ountry":5083,"Ġseems":5084,"alance":5085,"dest":5086,"ĉString":5087,"Ġmaint":5088,"Ġunit":5089,"acters":5090,"ĠTR":5091,"iful":5092,"exports":5093,"project":5094,"Application":5095,"legate":5096,"Ġtakes":5097,"term":5098,"Ġetc":5099,"uster":5100,"Ġappear":5101,"address":5102,"Ġfem":5103,"hs":5104,"Ġhom":5105,",-":5106,"Ġdifficult":5107,"Ġcoming":5108,"Open":5109,"Ġsettings":5110,"ĠWar":5111,"ĠThen":5112,"Ġautom":5113,"ĠFoundation":5114,"Ġquite":5115,"Description":5116,"Ġblog":5117,"iqu":5118,"PS":5119,"110":5120,"_field":5121,"Json":5122,"SSION":5123,"ĠSch":5124,"ĠLO":5125,"Ġdescri":5126,"Ġeveryone":5127,"Ġpretty":5128,"Ġlonger":5129,"Ġmenu":5130,"Ġcurrently":5131,"sec":5132,"Ġrelationship":5133,"################################":5134,"ĠMap":5135,"aset":5136,"Ġparameters":5137,"Ġcrush":5138,"\"čĊ":5139,"ILITY":5140,"igration":5141,"Ġcout":5142,"total":5143,"Ġnames":5144,"ndef":5145,"\");":5146,"riend":5147,"ynamic":5148,"Ġeffort":5149,"Ġactual":5150,"Ġfields":5151,"OUN":5152,"ters":5153,"250":5154,"Ġfix":5155,"_model":5156,"Ġcases":5157,"CA":5158,"My":5159,"Interface":5160,"ĠSE":5161,"196":5162,"]]":5163,"alle":5164,"ĠNational":5165,"ĠArrayList":5166,"inline":5167,".V":5168,"ara":5169,"refix":5170,"asc":5171,"Reader":5172,"ĠÐ¿":5173,"astic":5174,"(()":5175,"Cl":5176,".annotation":5177,"Ġperformance":5178,"aily":5179,".toString":5180,".net":5181,"views":5182,".end":5183,"ayers":5184,"late":5185,"ĠApr":5186,"ederal":5187,"'])":5188,".body":5189,"Ġhigher":5190,"_fl":5191,"cr":5192,"alert":5193,"_node":5194,"ĠGoogle":5195,"Ġitself":5196,"Auth":5197,"urrency":5198,"Ġsignificant":5199,"append":5200,"Ġrespect":5201,"strap":5202,"Ġuna":5203,"riteria":5204,"PORT":5205,".apache":5206,"Output":5207,"Ġprogress":5208,"Ġmid":5209,"ĠMicrosoft":5210,"Ġresource":5211,"ablish":5212,"Ġdim":5213,".load":5214,".App":5215,"Ġdirection":5216,"Ġadditional":5217,"ĠĠĠĠĠĠĠĠĠĠĠĠĠĠĠĠĠĠĠĠĠĠĠĠ":5218,"Ġnumbers":5219,"Ġcompanies":5220,".Th":5221,"Ġsound":5222,"username":5223,"Ġstatement":5224,"Ġalert":5225,"Ġcontract":5226,"home":5227,"_length":5228,".Component":5229,"ev":5230,".Ex":5231,"ï¼ļ":5232,"\";":5233,"ĠHigh":5234,"Ġ)ĊĊ":5235,"ĠPoint":5236,"oph":5237,"Ġlines":5238,"->_":5239,"\")ĊĊ":5240,"ox":5241,"application":5242,"Ġ]Ċ":5243,"ĊĊĊĊĊĊ":5244,"180":5245,"Ġsoon":5246,"ctions":5247,"inger":5248,"Ġjoin":5249,"ĠPe":5250,"Ġë":5251,"Ġlas":5252,".E":5253,"css":5254,"/or":5255,"ĠStart":5256,"ĠTO":5257,"Ġsubs":5258,"conn":5259,"components":5260,"DEBUG":5261,"quare":5262,"Function":5263,"endar":5264,".index":5265,"Ġfill":5266,"ÄĻ":5267,"Ġchoose":5268,"how":5269,"ĠAmerica":5270,"assets":5271,"------------":5272,"ĠValue":5273,"Ġoffice":5274,"Ġveh":5275,"Ġtransform":5276,"ĠArt":5277,"Ġinde":5278,"Ġfn":5279,"Ġimplements":5280,"ango":5281,"plete":5282,"+\"":5283,"tmp":5284,"amily":5285,"Ġhash":5286,"missions":5287,"EST":5288,"gt":5289,"Provider":5290,"ĠĠĠĠĠĠĠĠĠĠĠĠĠĠĠĠĠĠĠĠĠĠ":5291,"Ġflag":5292,"Ġparticip":5293,"den":5294,"ĠReturns":5295,"Ġnote":5296,"Ã¼r":5297,"pm":5298,"ideos":5299,"Ġspecified":5300,"ĠEN":5301,"ester":5302,"olid":5303,"Ġupon":5304,"(std":5305,"ĉv":5306,"Ġ'\\":5307,"uz":5308,"Ġvert":5309,"Ġvict":5310,"ĉself":5311,"Ġ\"$":5312,"85":5313,".k":5314,"Ġgroups":5315,"github":5316,"lang":5317,"Ġmut":5318,"TO":5319,"Ġve":5320,"ĠPlease":5321,";ĊĊĊ":5322,"access":5323,"Ġ{\"":5324,"rea":5325,"Ġrisk":5326,"icker":5327,"oggle":5328,"ĉwhile":5329,"ANG":5330,".send":5331,"72":5332,"Ġwoman":5333,"Ġgets":5334,"Ġign":5335,"ĠId":5336,"_log":5337,"ONE":5338,"Ġevid":5339,"ĠHar":5340,"_sub":5341,"Ġendl":5342,"Ġincluded":5343,"());ĊĊ":5344,"ĠAp":5345,"igr":5346,"Ġsem":5347,"ĠBlack":5348,"doc":5349,"_table":5350,"ĠĠĠĠĠĠĠĠĠĠĠĠĠĠĠĠĠĠĠĠĠĠĠĠĠĠĠĠĠĠĠĠĠĠĠĠĠĠĠĠĠĠĠĠĠĠĠĠĠĠĠĠĠĠĠĠĠĠĠĠĠĠĠĠ":5351,"-up":5352,"Ġcause":5353,"Ġ..":5354,"Ġvan":5355,"_dict":5356,"Ġfocus":5357,"IND":5358,"CESS":5359,".Log":5360,"Ġmultiple":5361,"ido":5362,"Ġregard":5363,"-M":5364,"andler":5365,"ourse":5366,"Ġdeg":5367,".U":5368,"Ġaddition":5369,"Ġvarious":5370,"Ġreceive":5371,"ÐµÐ½":5372,"ĠHT":5373,"Obj":5374,"DF":5375,"Ġincrease":5376,"ĠOpen":5377,"];":5378,"Ġcommit":5379,"?Ċ":5380,"ategories":5381,"atory":5382,"ship":5383,"ĠMich":5384,"Ġhtml":5385,"romise":5386,"Ġleave":5387,"Ġstrateg":5388,"aven":5389,"ĠConsole":5390,"known":5391,"-n":5392,"_LE":5393,".component":5394,"Ġbre":5395,"Session":5396,"iance":5397,"Ġalign":5398,"typedef":5399,"_result":5400,"ĠWHERE":5401,".split":5402,"Ġreading":5403,"FAULT":5404,"Ġclo":5405,"Ġnotice":5406,"_pr":5407,"arter":5408,"Ġlock":5409,"Ġstandard":5410,"etic":5411,"ellow":5412,"Ġpadding":5413,"ĠHis":5414,"Ġstates":5415,"_cast":5416,"(P":5417,"aa":5418,"Ġinternal":5419,"ean":5420,"ĠPRO":5421,"ĠKey":5422,"Ġespecially":5423,"ming":5424,"Ġcross":5425,"Ġnational":5426,"_object":5427,"filter":5428,"Ġscript":5429,".update":5430,"_i":5431,"ĠAssert":5432,"/core":5433,"%%%%":5434,"Ġproblems":5435,"istor":5436,"Ġ.=":5437,"Ġarch":5438,"Ġwritten":5439,"Ġmilit":5440,"MENT":5441,".ch":5442,"cape":5443,"ĠMus":5444,"_config":5445,"ĠAPI":5446,"foot":5447,"Ġimages":5448,"endl":5449,".In":5450,"First":5451,"Ġplatform":5452,".prot":5453,"Option":5454,"ste":5455,"ĠTODO":5456,"Ġforce":5457,".cont":5458,"ĉecho":5459,"ĠDav":5460,"Ptr":5461,"(B":5462,"RT":5463,"ĠBase":5464,"]['":5465,"Ġannounc":5466,"console":5467,"ĠPy":5468,"ds":5469,".as":5470,"Ġprevent":5471,"apan":5472,"Ġ{'":5473,"}</":5474,"ĠService":5475,"ĠSen":5476,"ador":5477,"profile":5478,"Top":5479,"Ġiter":5480,"po":5481,"IES":5482,"JSON":5483,"IE":5484,"iant":5485,"ãĢģ":5486,"_j":5487,"ĠSept":5488,"_map":5489,"bum":5490,"(context":5491,"ĠHome":5492,"ians":5493,"GB":5494,"63":5495,"Ġliving":5496,"Ġpattern":5497,"(input":5498,"icient":5499,"999":5500,"Core":5501,"Ġentity":5502,"Ġinteg":5503,"Changed":5504,"Ġuseful":5505,".info":5506,"Ġtool":5507,"(item":5508,"Ġok":5509,"Ġfeed":5510,"IX":5511,"Ã©s":5512,"ĠNews":5513,"remove":5514,"erry":5515,"ĉĉĉĉĉĉĉĉĉ":5516,"ipment":5517,"ares":5518,"Do":5519,"Current":5520,".content":5521,".Group":5522,"ustral":5523,"ĠÑģ":5524,"})":5525,"Ġpopular":5526,"Ġstre":5527,"Ġmethods":5528,"_ERROR":5529,"Left":5530,"cal":5531,"bsp":5532,".ToString":5533,"Ġdir":5534,"Ġallowed":5535,"Ġimpact":5536,"\")]Ċ":5537,"62":5538,".config":5539,"Ġelements":5540,"Ġprote":5541,"Ġtrain":5542,".tr":5543,"rs":5544,"ĠRepublic":5545,"ĠTask":5546,"61":5547,"aries":5548,"(D":5549,"(get":5550,"âĢ¦ĊĊ":5551,"Ġrelated":5552,"Ġvers":5553,"Ġsil":5554,"Ġ\"\";Ċ":5555,"Ġcmd":5556,"Ġtechnology":5557,".width":5558,"Float":5559,"ĠUse":5560,"Body":5561,"should":5562,".join":5563,"Font":5564,"llum":5565,"ycle":5566,"ĠBrit":5567,"Ġmit":5568,"Ġscale":5569,"Ġ(_":5570,"ernel":5571,"\"))Ċ":5572,"Ġscore":5573,"/v":5574,"Ġstudent":5575,"UC":5576,".show":5577,"Ġaverage":5578,"Enabled":5579,"(ex":5580,"common":5581,"imation":5582,":@\"":5583,"chie":5584,"Ġ...ĊĊ":5585,"river":5586,"ĠMarch":5587,"category":5588,"fin":5589,"Ġcourt":5590,"Ð²":5591,"Server":5592,"Ġcontainer":5593,"-st":5594,"_for":5595,"Ġparts":5596,"Ġdecision":5597,"obs":5598,"oub":5599,"mitted":5600,"Ġ$('#":5601,"Ġsaw":5602,"Ġapproach":5603,"ICE":5604,"Ġsaying":5605,"Ġanyone":5606,"meta":5607,"SD":5608,"Ġsong":5609,"display":5610,"Oper":5611,"outes":5612,"Ġchannel":5613,"Ġchanged":5614,"Ãª":5615,"Ġfinally":5616,"_number":5617,"Please":5618,"à¤":5619,"oring":5620,"-re":5621,"Ġkill":5622,"Ġdrug":5623,"window":5624,"Ġconvert":5625,"ombre":5626,"Ġways":5627,"Helper":5628,"ĠFirst":5629,"(__":5630,"urity":5631,"ĠWindows":5632,"ees":5633,"Ġmat":5634,"rapper":5635,"Ġplus":5636,"anges":5637,"\"].":5638,"azon":5639,"/t":5640,"lat":5641,"aste":5642,"Ġprofile":5643,"Ġready":5644,"#ifndef":5645,"rote":5646,"Ġsense":5647,"Gener":5648,"ĠConfig":5649,"omy":5650,"ĠJune":5651,"Ġlatest":5652,"Ġsaf":5653,"Ġregion":5654,"Ġdeep":5655,"witch":5656,"ĠPark":5657,"}`":5658,"ĠFrom":5659,"II":5660,"Ġcv":5661,"Ġreach":5662,"Ġcounter":5663,"ĠWork":5664,"ĠURL":5665,"ĠUpdate":5666,"',čĊ":5667,"Ġimmedi":5668,"close":5669,"ados":5670,"ferred":5671,"Ġweeks":5672,"urg":5673,"Ġdamage":5674,"Ġlost":5675,"ani":5676,"_lo":5677,"Ġhimself":5678,"Ġdog":5679,")]Ċ":5680,"ï¿":5681,"pir":5682,"tt":5683,"Ġpaper":5684,"Ġthems":5685,"second":5686,"Ġstaff":5687,"ĠInput":5688,"\"+":5689,"ĠFacebook":5690,"Ġalloc":5691,"Ġsched":5692,"ACE":5693,"Ġthemselves":5694,"ĠComponent":5695,"Ġdriver":5696,"ja":5697,"(path":5698,"Ġcategory":5699,"alls":5700,"pu":5701,"lluminate":5702,"ĠAction":5703,".button":5704,"ĠGL":5705,"istics":5706,"Ġoil":5707,"Ġstock":5708,">'":5709,"Ġdead":5710,"VAL":5711,"QUE":5712,"************************************************************************":5713,"Ġcharg":5714,"Return":5715,"Ġful":5716,"dom":5717,"Ġrules":5718,"Ġmodify":5719,"Ġeval":5720,"ham":5721,"atement":5722,"\\<":5723,"ula":5724,"=False":5725,"RA":5726,"Ġcontains":5727,"74":5728,"Ġstack":5729,"mar":5730,"Ġ{}Ċ":5731,"Ġundefined":5732,"Ass":5733,"ĠChina":5734,"vey":5735,"*Ċ":5736,"Ġplaying":5737,")/":5738,"actor":5739,"Ġbottom":5740,"lier":5741,"ĠNumber":5742,"Ġcouple":5743,"DC":5744,"ĠSO":5745,"gor":5746,".setText":5747,"success":5748,"command":5749,"Filter":5750,"ĠOur":5751,"_item":5752,"Ġctx":5753,"Ġroad":5754,"Version":5755,"case":5756,"urt":5757,"avior":5758,"ych":5759,"sembly":5760,"ĠProduct":5761,"Ġheld":5762,"afe":5763,"Ġincludes":5764,"<quote":5765,"Ġavoid":5766,"ĠFin":5767,"ĠMod":5768,"Ġtab":5769,"ano":5770,"Ã±":5771,"ipping":5772,"-e":5773,"Ġinsert":5774,"target":5775,"chan":5776,".Model":5777,"IME":5778,"\\Ċ":5779,"Ġmachine":5780,"avy":5781,"ĠNO":5782,"ĠInter":5783,"Ġoperation":5784,"modal":5785,"Tag":5786,"]:":5787,"Ġproduction":5788,"Ġareas":5789,"Ġren":5790,"_from":5791,"nbsp":5792,"Ġoperator":5793,"men":5794,"apped":5795,"_per":5796,"zen":5797,"(\".":5798,".save":5799,"=\"{{":5800,"Ġtor":5801,"(response":5802,"Ġcandid":5803,"Ġconv":5804,"ailed":5805,"ĠLib":5806,"comp":5807,"ura":5808,"ï¿½":5809,"ĠHere":5810,"Ġargument":5811,"hood":5812,"Ġestablish":5813,"ography":5814,"ĠonClick":5815,"ambda":5816,"Ġsch":5817,"Ġmovie":5818,"Ġsec":5819,"Ġactivity":5820,"Ø§":5821,"Ġsql":5822,"_all":5823,"incip":5824,"Ġprovides":5825,"Ġsys":5826,"acket":5827,"Ġwasn":5828,"Ġuses":5829,"ĠFunction":5830,".google":5831,"ĠResult":5832,"84":5833,"Visible":5834,"agma":5835,"elcome":5836,"ĠSy":5837,"ĠCent":5838,"ALSE":5839,"aciÃ³n":5840,"EXT":5841,"Ġlicense":5842,"ĠLong":5843,"Ġaccom":5844,"Ġability":5845,".height":5846,"Active":5847,"ological":5848,"oly":5849,")),":5850,".Se":5851,"Ġparameter":5852,"prite":5853,"ABILITY":5854,".service":5855,"ĠGroup":5856,"_query":5857,"ĠItem":5858,"ining":5859,"Ġjud":5860,"ims":5861,"fix":5862,"inder":5863,"agram":5864,"Ġfunctions":5865,"Ġexperi":5866,"ĠEm":5867,"Ġrot":5868,"Ġpen":5869,".btn":5870,"ĠAS":5871,"#ifdef":5872,"Ġchoice":5873,"ĠPage":5874,"_PRO":5875,"QU":5876,"åı":5877,"antity":5878,"ÂŃ":5879,"words":5880,"Ġreadonly":5881,"Ġflex":5882,"protected":5883,"ĠAny":5884,"Ġcharacters":5885,"enced":5886,"ĠJuly":5887,"iler":5888,"Card":5889,"urance":5890,"Ġrev":5891,".event":5892,"aly":5893,"130":5894,"Ġwonder":5895,"ĠPort":5896,"Ġlegal":5897,"role":5898,"Ġten":5899,"Ġgoes":5900,"MP":5901,"white":5902,"):čĊ":5903,"))čĊ":5904,"Ġreference":5905,"Ġmis":5906,"ĠProject":5907,"icks":5908,">&":5909,"CON":5910,"Ġrepl":5911,"Ġregular":5912,"Storage":5913,"ramework":5914,"Ġgoal":5915,"Ġtouch":5916,".widget":5917,"Ġbuilt":5918,"des":5919,"Part":5920,"(re":5921,"Ġworth":5922,"hib":5923,"game":5924,"91":5925,"192":5926,"ĠÐ²":5927,"acion":5928,"ĠWhite":5929,"(type":5930,"(`":5931,"81":5932,"Ġnatural":5933,"Ġinj":5934,"Ġcalcul":5935,"ĠApril":5936,".List":5937,"Ġassociated":5938,"ĉSystem":5939,"~~":5940,"=[":5941,"Ġstorage":5942,"Ġbytes":5943,"Ġtravel":5944,"Ġsou":5945,"Ġpassed":5946,"!=":5947,"ascript":5948,".open":5949,"Ġgrid":5950,"Ġbus":5951,"Ġrecogn":5952,"Ab":5953,"Ġhon":5954,"ĠCenter":5955,"Ġprec":5956,"build":5957,"73":5958,"HTML":5959,"ĠSan":5960,"Ġcountries":5961,"aled":5962,"token":5963,"kt":5964,"Ġqual":5965,"Last":5966,"adow":5967,"Ġmanufact":5968,"idad":5969,"jango":5970,"Next":5971,"xf":5972,".a":5973,"Ġporno":5974,"ĠPM":5975,"erve":5976,"iting":5977,"_th":5978,"ci":5979,"=None":5980,"gs":5981,"Ġlogin":5982,"atives":5983,"']);Ċ":5984,"Äħ":5985,"Ġill":5986,"IA":5987,"children":5988,"DO":5989,"Ġlevels":5990,"Ġ{{":5991,"Ġlooks":5992,"Ġ\"#":5993,"ToString":5994,"Ġnecessary":5995,"ĠĠĠĊ":5996,"cell":5997,"Entry":5998,"Ġ'#":5999,"Ġextrem":6000,"Selector":6001,"Ġplaceholder":6002,"Load":6003,"Ġreleased":6004,"ORE":6005,"Enumer":6006,"ĠTV":6007,"SET":6008,"inq":6009,"Press":6010,"ĠDepartment":6011,"Ġproperties":6012,"Ġrespond":6013,"Search":6014,"ael":6015,"Ġrequ":6016,"ĠBook":6017,"/Ċ":6018,"(st":6019,"Ġfinancial":6020,"icket":6021,"_input":6022,"Ġthreat":6023,"(in":6024,"Strip":6025,"ìĿ":6026,"Ã§Ã£o":6027,"71":6028,"Ġevidence":6029,"));":6030,"ĠBro":6031,"Ġ[];Ċ":6032,"Ġou":6033,"buf":6034,"Script":6035,"dat":6036,"Ġrule":6037,"#import":6038,"=\"/":6039,"Serial":6040,"Ġstarting":6041,"[index":6042,"ae":6043,"Ġcontrib":6044,"session":6045,"_new":6046,"utable":6047,"ober":6048,"Ġ\"./":6049,"Ġlogger":6050,"Ġrecently":6051,"Ġreturned":6052,"ččĊ":6053,")))Ċ":6054,"itions":6055,"Ġseek":6056,"Ġcommunic":6057,"Ġ\".":6058,"Ġusername":6059,"ECT":6060,"DS":6061,"Ġotherwise":6062,"ĠGerman":6063,".aw":6064,"Adapter":6065,"ixel":6066,"Ġsystems":6067,"Ġdrop":6068,"83":6069,"Ġstructure":6070,"Ġ$(\"#":6071,"encies":6072,"anning":6073,"ĠLink":6074,"ĠResponse":6075,"Ġstri":6076,"Å¼":6077,"ĠDB":6078,"æĹ":6079,"android":6080,"submit":6081,"otion":6082,"92":6083,"(@":6084,".test":6085,"82":6086,"ĊĊĊĊĊĊĊĊ":6087,"];čĊ":6088,"Ġdirectly":6089,"Ġ\"%":6090,"ris":6091,"elta":6092,"AIL":6093,"){čĊ":6094,"mine":6095,"ĠĠĠĠĠĠĠĠĠĠĠĠĠĠĠĠĠĠĠĠĠĠĠĠĠĠ":6096,"(k":6097,"bon":6098,"asic":6099,"pite":6100,"___":6101,"Max":6102,"Ġerrors":6103,"ĠWhile":6104,"Ġarguments":6105,"Ġensure":6106,"Right":6107,"-based":6108,"Web":6109,"Ġ-=":6110,"Ġintrodu":6111,"ĠInst":6112,"ĠWash":6113,"ordin":6114,"join":6115,"Database":6116,"Ġgrad":6117,"Ġusually":6118,"ITE":6119,"Props":6120,"?>Ċ":6121,"ĠGo":6122,"@Override":6123,"REF":6124,"Ġip":6125,"ĠAustral":6126,"Ġist":6127,"ViewById":6128,"Ġserious":6129,"Ġcustomer":6130,".prototype":6131,"odo":6132,"cor":6133,"Ġdoor":6134,"ĠWITHOUT":6135,"Ġplant":6136,"Ġbegan":6137,"Ġdistance":6138,"()).":6139,"Ġchance":6140,"Ġord":6141,"came":6142,"pragma":6143,"Ġprotect":6144,"ragment":6145,"ĠNode":6146,"ening":6147,"Ñĩ":6148,"Ġroute":6149,"ĠSchool":6150,"hi":6151,"Ġneighb":6152,"After":6153,"licit":6154,"Ġcontr":6155,"Ġprimary":6156,"AA":6157,".WriteLine":6158,"utils":6159,"Ġbi":6160,"Red":6161,".Linq":6162,".object":6163,"Ġleaders":6164,"unities":6165,"Ġgun":6166,"onth":6167,"ĠDev":6168,"FILE":6169,"Ġcomments":6170,"_len":6171,"arrow":6172,"amount":6173,"Range":6174,"sert":6175,"GridView":6176,"Ġupdated":6177,"ĠMo":6178,"Ġinform":6179,"ociety":6180,"ala":6181,"Access":6182,"Ġhab":6183,"Ġcreat":6184,"_arg":6185,"ĠJanuary":6186,"ĠDay":6187,"\")čĊ":6188,"uple":6189,"document":6190,"gorith":6191,"menu":6192,"ĠOver":6193,"bb":6194,".title":6195,"_out":6196,"Ġled":6197,"uri":6198,"Ġ?></":6199,"gl":6200,"Ġbank":6201,"ayment":6202,"ĉprintf":6203,"MD":6204,"Ġsample":6205,"Ġhands":6206,"ĠVersion":6207,"uario":6208,"Ġoffers":6209,"ityEngine":6210,"Ġshape":6211,"Ġsleep":6212,"_point":6213,"Settings":6214,"Ġachie":6215,"Ġsold":6216,"ota":6217,".bind":6218,"Am":6219,"Ġsafe":6220,"Store":6221,"Ġshared":6222,"Ġpriv":6223,"_VAL":6224,"Ġsens":6225,"){":6226,"Ġremember":6227,"shared":6228,"element":6229,"Ġshoot":6230,"Vert":6231,"cout":6232,"Ġenv":6233,"_label":6234,"Ġ>Ċ":6235,"run":6236,"Ġscene":6237,"(array":6238,"device":6239,"_title":6240,"agon":6241,"]čĊ":6242,"aby":6243,"Ġbecame":6244,"boolean":6245,"Ġpark":6246,"ĠCode":6247,"upload":6248,"riday":6249,"ĠSeptember":6250,"Fe":6251,"Ġsen":6252,"cing":6253,"FL":6254,"Col":6255,"uts":6256,"_page":6257,"inn":6258,"Ġimplied":6259,"aling":6260,"Ġyourself":6261,".Count":6262,"conf":6263,"Ġaud":6264,"_init":6265,".)":6266,"Ġwrote":6267,"003":6268,"NG":6269,".Error":6270,"ä»":6271,".for":6272,"Ġequal":6273,"ĠRequest":6274,"Ġserial":6275,"Ġallows":6276,"XX":6277,"Ġmiddle":6278,"chor":6279,"195":6280,"94":6281,"Ã¸":6282,"erval":6283,".Column":6284,"reading":6285,"Ġescort":6286,"ĠAugust":6287,"Ġquickly":6288,"Ġweap":6289,"ĠCG":6290,"ropri":6291,"ho":6292,"Ġcop":6293,"(struct":6294,"ĠBig":6295,"Ġvs":6296,"Ġfrequ":6297,".Value":6298,"Ġactions":6299,"Ġproper":6300,"Ġinn":6301,"Ġobjects":6302,"Ġmatrix":6303,"avascript":6304,"Ġones":6305,".group":6306,"Ġgreen":6307,"Ġpaint":6308,"ools":6309,"ycl":6310,"encode":6311,"olt":6312,"comment":6313,".api":6314,"Dir":6315,"Ġune":6316,"izont":6317,".position":6318,"Ġdesigned":6319,"_val":6320,"avi":6321,"iring":6322,"tab":6323,"Ġlayer":6324,"Ġviews":6325,"Ġreve":6326,"rael":6327,"ĠON":6328,"rics":6329,"160":6330,"np":6331,"Ġcore":6332,"());čĊ":6333,"Main":6334,"Ġexpert":6335,"ĉĉčĊ":6336,"_en":6337,"Ġ/>":6338,"utter":6339,"IAL":6340,"ails":6341,"ĠKing":6342,"*/ĊĊ":6343,"ĠMet":6344,"_end":6345,"addr":6346,"ora":6347,"Ġir":6348,"Min":6349,"Ġsurpr":6350,"Ġrepe":6351,"Ġdirectory":6352,"PUT":6353,"-S":6354,"Ġelection":6355,"haps":6356,".pre":6357,"cm":6358,"Values":6359,"Ġ\"Ċ":6360,"column":6361,"ivil":6362,"Login":6363,"inue":6364,"93":6365,"Ġbeautiful":6366,"Ġsecret":6367,"(event":6368,"Ġchat":6369,"ums":6370,"Ġorigin":6371,"Ġeffects":6372,"Ġmanagement":6373,"illa":6374,"tk":6375,"Ġsetting":6376,"ĠCour":6377,"Ġmassage":6378,"ĉend":6379,"Ġhappy":6380,"Ġfinish":6381,"Ġcamera":6382,"ĠVer":6383,"ĠDemocr":6384,"ĠHer":6385,"(Q":6386,"cons":6387,"ita":6388,"Ġ'.":6389,"{}":6390,"ĉC":6391,"Ġstuff":6392,"194":6393,"Ġ:Ċ":6394,"ĠAR":6395,"Task":6396,"hidden":6397,"eros":6398,"IGN":6399,"atio":6400,"ĠHealth":6401,"olute":6402,"Enter":6403,"'>":6404,"ĠTwitter":6405,"ĠCounty":6406,"scribe":6407,"Ġ=>Ċ":6408,"Ġhy":6409,"fit":6410,"Ġmilitary":6411,"Ġsale":6412,"required":6413,"non":6414,"bootstrap":6415,"hold":6416,"rim":6417,"-old":6418,"ĠDown":6419,"Ġmention":6420,"contact":6421,"_group":6422,"oday":6423,"Ġtown":6424,"Ġsolution":6425,"uate":6426,"elling":6427,"]->":6428,"otes":6429,"ental":6430,"omen":6431,"ospital":6432,"ĠSup":6433,"_EN":6434,"Ġslow":6435,"SESSION":6436,"Ġblue":6437,"ago":6438,"Ġlives":6439,"Ġ^":6440,".un":6441,"inst":6442,"enge":6443,"Ġcustomers":6444,"Ġcast":6445,"udget":6446,"ï¼ģ":6447,"icens":6448,"Ġdetermin":6449,"Selected":6450,"_pl":6451,"ueue":6452,"Ġdark":6453,"//ĊĊ":6454,"si":6455,"thern":6456,"ĠJapan":6457,"/w":6458,"PU":6459,"ĠEast":6460,"ovie":6461,"Ġpackage":6462,"Ġnor":6463,"Ġapi":6464,"bot":6465,"\"];Ċ":6466,"_post":6467,"ulate":6468,"Ġclub":6469,"'));Ċ":6470,"Ġloop":6471,"PIO":6472,"ione":6473,"shot":6474,"Initial":6475,"Ġplayed":6476,"register":6477,"rought":6478,"_max":6479,"acement":6480,"match":6481,"raphics":6482,"AST":6483,"Ġexisting":6484,"Ġcomplex":6485,"DA":6486,".Ch":6487,".common":6488,"mo":6489,"Ġ'../../":6490,"ito":6491,"Ġanalysis":6492,"Ġdeliver":6493,"ĠĠĠĠĠĠĠĠĠĠĠĠĠĠĠĠĊ":6494,"idx":6495,"Ãł":6496,"ongo":6497,"ĠEnglish":6498,"<!--":6499,"Ġcomputer":6500,"ENSE":6501,"Ġpas":6502,"Ġrais":6503,"Hash":6504,"Ġmobile":6505,"Ġowner":6506,"FIG":6507,"ĠĠĠĠĠĠĠĠĠĠĠĠĠĠĠĠĠĠĠĠĠĠĠĠĠĠĠĠĠĠĠĠĠĠĠĠĠĠĠĠĠĠĠĠĠĠĠĠĠĠĠ":6508,"thes":6509,"Ġattr":6510,"wd":6511,".time":6512,"awn":6513,"Ġtreatment":6514,"ĠAc":6515,".View":6516,"impl":6517,"more":6518,"pass":6519,"Ġha":6520,".from":6521,"Ġleading":6522,"FFFF":6523,"(error":6524,".ui":6525,"atar":6526,"aders":6527,"dates":6528,"Ġzu":6529,"Ġflow":6530,"Target":6531,"Ġinvolved":6532,"Ġio":6533,"parse":6534,"$_":6535,"hest":6536,".int":6537,"-item":6538,"asy":6539,"Sp":6540,"Ġshift":6541,"NT":6542,"Ġtf":6543,"_TR":6544,".web":6545,"CS":6546,"Ġ})":6547,"Ġeyes":6548,"125":6549,"105":6550,"_z":6551,"');čĊ":6552,"iforn":6553,"Ġ{@":6554,"Ġnice":6555,".list":6556,"ĠĠĠĠčĊ":6557,"Ġfloor":6558,"Ġredirect":6559,"ĠUK":6560,"(['":6561,"Ġwish":6562,"Ġcapt":6563,"legal":6564,"ĠIO":6565,"Ġstage":6566,".String":6567,"ĠAfr":6568,"igen":6569,"ĠSH":6570,"Delete":6571,"ells":6572,"Ġsolid":6573,"Ġmeeting":6574,"Ġworked":6575,"Ġeditor":6576,"iny":6577,"Ð¼":6578,"_read":6579,".Id":6580,"eff":6581,"Offset":6582,"cha":6583,"USER":6584,"ĉĉĠĠĠ":6585,"ipped":6586,"Ġdict":6587,"ĠRun":6588,".hpp":6589,"Ġang":6590,"xml":6591,"imple":6592,"Ġmedical":6593,"_token":6594,"connect":6595,"Ġhour":6596,"Ġcontroller":6597,"_message":6598,"UID":6599,"Gr":6600,"anded":6601,"_CH":6602,"Ġbooks":6603,"Ġspeak":6604,"aming":6605,"Ġmount":6606,"Record":6607,"ĉstruct":6608,".Web":6609,"ondon":6610,"Ġ//Ċ":6611,"Ġfelt":6612,".Auto":6613,"idge":6614,"_pos":6615,"PR":6616,"Ġmodern":6617,"Collection":6618,"_msg":6619,"CD":6620,"ĠLo":6621,"Ġseconds":6622,"ibly":6623,".equals":6624,"Ġinternational":6625,"#pragma":6626,"ooth":6627,"Writer":6628,"iate":6629,"Ġcele":6630,"ĠBit":6631,"ivo":6632,"ivery":6633,"rd":6634,"HECK":6635,"Ġcache":6636,".count":6637,"Ġroll":6638,".Read":6639,"108":6640,"RED":6641,"Ġsetup":6642,"izontal":6643,"models":6644,"argv":6645,"Ġconsidered":6646,"=\"../":6647,"settings":6648,"ĠRel":6649,"Ġgrowth":6650,"Ġmix":6651,"ĠWashington":6652,"Ġplt":6653,"ĠIM":6654,"áº":6655,"Ġturned":6656,"ĠDateTime":6657,"ĠWed":6658,"(url":6659,"Ġ\"-":6660,"Ġletter":6661,"Async":6662,"ĠĠĠĠĠĠĠĠĠĠĠĠĠĠĠĠĠĠĠĠĠĠĠĠĠĠĠĠ":6663,"ĠOctober":6664,"_line":6665,"Ġattention":6666,"Ġcollect":6667,"ĠHash":6668,"Ġimag":6669,"Tree":6670,"Ġsituation":6671,"ette":6672,"_no":6673,"IVE":6674,"Ġvon":6675,".target":6676,"Ġknowledge":6677,"Ġdrive":6678,".post":6679,"Ġblood":6680,"Ġcit":6681,"primary":6682,"Ġconfiguration":6683,"tee":6684,"Ġphoto":6685,"isode":6686,"Trace":6687,"Ġgave":6688,"Ġshot":6689,"ĠAir":6690,"Ġmother":6691,"price":6692,"Ġmorning":6693,")){Ċ":6694,"-x":6695,"Ġtrade":6696,"Ġdesc":6697,"Ġ&&Ċ":6698,"Ġparents":6699,"Api":6700,"åĪ":6701,"ted":6702,"wer":6703,"Ġæ":6704,"Ġsy":6705,"ĠKe":6706,"Parser":6707,"åħ":6708,"ancy":6709,"Ġpiece":6710,"ifornia":6711,"toString":6712,"ran":6713,"iding":6714,"PTION":6715,"comes":6716,"/lic":6717,".client":6718,"El":6719,"Long":6720,"Ġprofessional":6721,"rupt":6722,"va":6723,"Ġcompletely":6724,"Ġpractice":6725,"002":6726,"Ġselection":6727,"Rem":6728,"ini":6729,"Ġcam":6730,"REE":6731,"Ġsites":6732,"pa":6733,"ATUS":6734,"ÑģÑĤ":6735,"arrant":6736,"*(":6737,"_KEY":6738,"ĠButton":6739,"ĠFriday":6740,"sequ":6741,"Ġreader":6742,"Ġmessages":6743,"è¯":6744,"Ġbuf":6745,"Ke":6746,"Ġnov":6747,"HP":6748,"Msg":6749,"align":6750,"arily":6751,"Ġ',":6752,"_with":6753,"Ġdas":6754,"Ġheard":6755,"atomic":6756,"rial":6757,")[":6758,"Ġdise":6759,"@end":6760,"Ġgold":6761,"Ġfair":6762,"Ġsales":6763,".Button":6764,"strict":6765,"save":6766,"Ġmeasure":6767,"Ġ\"+":6768,"ecause":6769,"ViewController":6770,"ĠTable":6771,".param":6772,"Ġdecided":6773,"(((":6774,"INFO":6775,"Ġopportunity":6776,"Te":6777,"ICENSE":6778,"ccording":6779,"ki":6780,"ĠUN":6781,"Ġcontain":6782,"Ġmanager":6783,"Ġpain":6784,"ĠFire":6785,"rome":6786,"Ġplans":6787,"Found":6788,"lay":6789,"ĠDecember":6790,"Ġinflu":6791,"Ãº":6792,"rench":6793,"ĠĠĠĠĠĠĠĠĠĠĠĠĠĠĠĠĠĠĠĠĠĠĠĠĠĠĠĠĠĠĠĠĠ":6794,"azing":6795,"brief":6796,"call":6797,"wood":6798,"Ġloaded":6799,"Ġgrand":6800,"/f":6801,"imp":6802,"_U":6803,"127":6804,"STR":6805,"âĢ¢":6806,"Ġcredit":6807,".Color":6808,"orge":6809,"QUEST":6810,"Ġdifference":6811,"ĠPC":6812,"wargs":6813,"Ġpub":6814,"unday":6815,"Ġfra":6816,".max":6817,"Ġtried":6818,"annels":6819,"send":6820,"Ġreports":6821,"Ġadult":6822,"äº":6823,"Ġconsist":6824,"ĠStreet":6825,"ĠProgram":6826,"SQL":6827,"Matrix":6828,"ouncil":6829,"-A":6830,"ĉw":6831,"Ġwhose":6832,"Ġrelig":6833,"ĠSex":6834,"Ġgives":6835,"none":6836,".message":6837,"(G":6838,".awt":6839,"-right":6840,"ĠNovember":6841,"ellig":6842,"360":6843,"utive":6844,"Äĥ":6845,"overn":6846,"Ġeasily":6847,"Ġideas":6848,"104":6849,"ĠÐ½":6850,"/css":6851,"lying":6852,"elle":6853,"Can":6854,"_color":6855,"Ð¾Ð²":6856,"Ġpair":6857,"ngth":6858,"Ġsplit":6859,"140":6860,"drop":6861,"arty":6862,"ona":6863,"Ġcapital":6864,"Ġhear":6865,"Ġexists":6866,"ĉlog":6867,"emo":6868,"Run":6869,"oi":6870,"Ġparser":6871,"ĠMethod":6872,"Ġeducation":6873,"[k":6874,"Ġlibrary":6875,">\";Ċ":6876,"_UN":6877,"ĉstd":6878,"oded":6879,"Ġcalls":6880,"here":6881,"Rel":6882,"Ġbrand":6883,"background":6884,"ga":6885,"_address":6886,"_params":6887,"Category":6888,"103":6889,"ĠIndia":6890,"_event":6891,"Ġing":6892,"Render":6893,".cl":6894,"umpy":6895,"Ġpet":6896,"FC":6897,"ĠAnt":6898,"Ext":6899,"Ġcharge":6900,"ened":6901,"grad":6902,"EO":6903,"Ġdepend":6904,"Ġ.ĊĊ":6905,"frame":6906,"Ġdf":6907,"Ġhuge":6908,"ĠPART":6909,"eds":6910,";;":6911,"ĠAM":6912,"Ġbasic":6913,"ĠLet":6914,"lich":6915,"Ġarm":6916,"Ġstar":6917,"Ġfederal":6918,"Work":6919,"Ġcarry":6920,"ĠIsrael":6921,"(obj":6922,"={{":6923,"Ġsaved":6924,"Ġsyn":6925,"Ġconstant":6926,"VENT":6927,"Ġpositive":6928,"Ġconduct":6929,"Ġskin":6930,"Ġearlier":6931,"Ġlayout":6932,"ĠIP":6933,"OUR":6934,"Ġtim":6935,"stylesheet":6936,"_cl":6937,"ĠCard":6938,"++){Ċ":6939,"Ġtemper":6940,"ĠDavid":6941,"ĉtry":6942,".dart":6943,"Ġwants":6944,"Ġpicture":6945,"Ġvideos":6946,"ĠComm":6947,"isions":6948,"_MAX":6949,"Mapping":6950,"-content":6951,"ĠEar":6952,"-de":6953,"Ġprem":6954,"bruary":6955,"Ġcomponents":6956,"Ġthroughout":6957,"Ġpull":6958,"Ġpages":6959,"ente":6960,"respond":6961,"Ġgas":6962,"criptor":6963,"Ġedge":6964,"Ġbound":6965,"ACT":6966,"******":6967,"Ġcreating":6968,"ĠCH":6969,"Ġnullptr":6970,"Br":6971,"+'":6972,".co":6973,">::":6974,"Ġlearning":6975,".Length":6976,"_SH":6977,"Ġpatients":6978,"AIN":6979,"Ġkids":6980,"Ġcomfort":6981,"Ġshown":6982,"ugins":6983,"ĠBack":6984,"ella":6985,"_CL":6986,"Ġlat":6987,"Ġdispatch":6988,"Ġclasses":6989,".at":6990,".begin":6991,"Ġsuccessful":6992,"ban":6993,"Ġobtain":6994,"ĠSl":6995,"Ġlack":6996,"iterator":6997,"Thread":6998,"(size":6999,"Ġnone":7000,".has":7001,"_X":7002,"sort":7003,"nap":7004,"pet":7005,"bin":7006,"700":7007,"ĠCanada":7008,"They":7009,"Ġdans":7010,"ĠMat":7011,"<td":7012,"Ġhair":7013,"Ġ'',Ċ":7014,"Ġcu":7015,"Ġlaws":7016,"leted":7017,"ped":7018,"Ġpow":7019,"Ġknew":7020,"_COM":7021,"_,":7022,"ĠMag":7023,"idents":7024,"(req":7025,"Ġ),":7026,"-center":7027,"190":7028,"Ġwide":7029,"ĠAuthor":7030,"stants":7031,"Ġjobs":7032,"Ġmath":7033,"etimes":7034,"Boolean":7035,"Ġscope":7036,"_is":7037,"Ġmeas":7038,"Ġkeys":7039,"elay":7040,"Ġexactly":7041,"'=>'":7042,"ĠPaul":7043,"mas":7044,"ĉprint":7045,"(len":7046,"fd":7047,"Ġ);":7048,".Event":7049,"qli":7050,"irit":7051,"ields":7052,"oman":7053,"ĠTop":7054,"Ġvote":7055,"Ġmask":7056,"Ġtheme":7057,"-Ċ":7058,"Ġprops":7059,"Ġfine":7060,"Ġwriter":7061,"_offset":7062,"car":7063,"Ġaltern":7064,"Ġcopyright":7065,"Ġdestroy":7066,"pper":7067,"Ġgenerate":7068,"pped":7069,"âĢĻd":7070,"ĠĠĠĠĠĠĊ":7071,"make":7072,"ĠShow":7073,"Ġbrowser":7074,"Ġfavorite":7075,"Ġcareer":7076,"Ġhappened":7077,"(char":7078,"Ġrecommend":7079,"Ġliter":7080,".filter":7081,"grade":7082,"ĠÂ£":7083,"Phone":7084,"oms":7085,"Ġnamed":7086,"-label":7087,"ipo":7088,"ĠOther":7089,"Ġpanel":7090,"Ġrock":7091,"Scale":7092,"ĉassert":7093,"Ð´":7094,"Ġtrust":7095,"front":7096,"Ġdemon":7097,"Ar":7098,"Net":7099,"Ġeconomic":7100,"footer":7101,"Ġrace":7102,"(node":7103,"ĠOption":7104,"split":7105,"Ġphysical":7106,"ifest":7107,"Ġremoved":7108,".http":7109,")),Ċ":7110,"Ġlooked":7111,"';":7112,"ding":7113,"gest":7114,"aturday":7115,"/licenses":7116,"Price":7117,"Ġdro":7118,"Ġtowards":7119,"Ġuns":7120,"ĠCL":7121,"ĉstatic":7122,"Ġrows":7123,"Ġdefine":7124,".replace":7125,"Ġfather":7126,"ĠDesign":7127,"assign":7128,"mut":7129,"Device":7130,"Did":7131,"'))Ċ":7132,"ometry":7133,"ayload":7134,"Ġhistor":7135,"ĠParam":7136,"ĠBoolean":7137,"Ġnature":7138,"Ġjs":7139,"Ġnation":7140,"ih":7141,"Ġdiscover":7142,"sem":7143,"Handle":7144,"ĉr":7145,"ĠTechn":7146,"Ġwall":7147,"{$":7148,"@property":7149,"Ġ\"../":7150,"Ġexam":7151,".draw":7152,"opping":7153,"Ġnearly":7154,"Ġcool":7155,"Ġindepend":7156,"RES":7157,"Ġhandler":7158,"ĠMonday":7159,"Ġsun":7160,"Styles":7161,"ously":7162,"Ġĉ":7163,"vest":7164,"Display":7165,"(y":7166,"atically":7167,"Ġpredict":7168,"ying":7169,"Ġsometimes":7170,"\"]Ċ":7171,"Ġdrink":7172,"Ġbul":7173,"ifications":7174,".insert":7175,".reg":7176,"Ġtests":7177,"Alignment":7178,"Ġalleg":7179,"Ġattribute":7180,"ĠNote":7181,"Ġmyself":7182,"arts":7183,"Now":7184,"Ġinteresting":7185,"lients":7186,"Ġpopulation":7187,"ĠCalifornia":7188,"\"I":7189,"å¹":7190,"Ġgreater":7191,"uesday":7192,"Ġthous":7193,"Ġcosts":7194,"Ġlaunch":7195,"\\Http":7196,"ker":7197,"band":7198,"ĠPlay":7199,"Ġband":7200,".shape":7201,"esome":7202,"article":7203,".rf":7204,"Ġwer":7205,"Ã¡s":7206,"embers":7207,"usr":7208,"BA":7209,"ican":7210,"ett":7211,"validate":7212,"ulti":7213,"Ġimmediately":7214,"zer":7215,"Ġfigure":7216,"oes":7217,"eller":7218,"ircle":7219,"ĠSign":7220,".db":7221,"Ġrank":7222,"Bytes":7223,"Ġprojects":7224,"_rec":7225,"ULAR":7226,"API":7227,"ĠLine":7228,"Port":7229,"Ġpoll":7230,"Ġgiving":7231,"idence":7232,"--Ċ":7233,"Ġplot":7234,"icial":7235,"Ġwarrant":7236,"ITION":7237,"ĠDouble":7238,"Ġbillion":7239,"gorithm":7240,"Ġequipment":7241,"DATE":7242,"Ġ@\"":7243,"EE":7244,"Ġple":7245,"iation":7246,"Ġheaders":7247,"Ġproced":7248,".ComponentModel":7249,"ĠObama":7250,"Ġpa":7251,"ĠBest":7252,"imately":7253,".getString":7254,".\\":7255,"mploy":7256,"Ġraw":7257,"_block":7258,"undred":7259,"\"},Ċ":7260,"112":7261,".GroupLayout":7262,"Ġbrought":7263,"NSString":7264,"throw":7265,"created":7266,".New":7267,"_view":7268,"CP":7269,"eps":7270,"Op":7271,"Ġgratis":7272,"Ġ'\"":7273,"Ġinterview":7274,"\"\"\"Ċ":7275,"Ġpartial":7276,"Ġaria":7277,"bing":7278,"Author":7279,"Book":7280,"ĠPat":7281,"uman":7282,"Users":7283,"plus":7284,"193":7285,"ĠDirect":7286,"venue":7287,"alpha":7288,"UCCESS":7289,"ĠCall":7290,"Ġ);čĊ":7291,"imated":7292,"Ġremain":7293,"Ġanti":7294,"ĠLondon":7295,"Ġsafety":7296,"POSE":7297,"oles":7298,"controller":7299,"Byte":7300,"ĠCourt":7301,"ĠPhil":7302,"ĠAssoci":7303,"ena":7304,"åĲ":7305,"_STR":7306,"coin":7307,"reshold":7308,"Ġbatch":7309,"_Click":7310,"entication":7311,">';Ċ":7312,"enty":7313,"Ġbeginning":7314,"Ġzero":7315,"ĠConvert":7316,"Ġterr":7317,"Ġpaid":7318,"Ġincreased":7319,"catch":7320,"-size":7321,"115":7322,"activity":7323,"equals":7324,"Ġqueue":7325,"Ġ\"'":7326,"ĠInternational":7327,"ĠfÃ¼r":7328,"ursday":7329,"Ġscient":7330,"allow":7331,"axis":7332,"Ġappropri":7333,"edge":7334,"Ġidx":7335,"Success":7336,"entifier":7337,":\\":7338,"xis":7339,"Ġmaximum":7340,"arks":7341,"Ġbirth":7342,"(index":7343,"Ġmaybe":7344,".py":7345,"files":7346,"Ġlimited":7347,"_check":7348,"look":7349,"plies":7350,"Ġmovement":7351,"'].":7352,"Ġbroad":7353,"ĠBE":7354,"ĠUnityEngine":7355,".cpp":7356,"ĠEvery":7357,"Admin":7358,"Ġfans":7359,"pared":7360,"ĊĠĠĠĠĊ":7361,"Ġforeign":7362,"Ġpan":7363,"Ġtour":7364,"ĠOrder":7365,"Ġmoving":7366,"Ġauf":7367,"Call":7368,"cb":7369,"ÅŁ":7370,"ventory":7371,"ĠSql":7372,"Ġfully":7373,"ClickListener":7374,"WORD":7375,"Ġannounced":7376,")čĊčĊ":7377,"Ġagreed":7378,"rie":7379,"Ġearn":7380,"_link":7381,".array":7382,"(text":7383,"Ġmaterials":7384,",p":7385,"ffff":7386,"vg":7387,"ĠÂ©":7388,"Ġunless":7389,"ajax":7390,"LOG":7391,"Ġsexual":7392,"Ġ\\\"":7393,"-time":7394,"Ġcoach":7395,"Ġsupported":7396,"Ġphotos":7397,"iform":7398,".Create":7399,")]":7400,"rier":7401,"Ġdialog":7402,"aver":7403,"ige":7404,")+":7405,"_idx":7406,":[":7407,"_min":7408,"ĠCong":7409,"Ġpressure":7410,"Ġteams":7411,"Sign":7412,"begin":7413,"rian":7414,"NESS":7415,"LS":7416,"Ġimprove":7417,"ĠSunday":7418,"Ġdefinition":7419,"iger":7420,"rollers":7421,"Ġthinking":7422,"Template":7423,"-F":7424,"Ġemerg":7425,"plates":7426,"ĠUSA":7427,".setState":7428,"ĠAlso":7429,"rev":7430,"Ġenable":7431,"ĠCO":7432,"PECT":7433,"Ġconcept":7434,")-":7435,"ĠâĢ¢":7436,"Ġsets":7437,"Ġmeaning":7438,"emon":7439,"ĠCons":7440,"cmp":7441,"eder":7442,"anned":7443,"icensed":7444,"ĠSuper":7445,"Ġdaily":7446,"Ġmulti":7447,"_u":7448,"Ġchalleng":7449,"_mode":7450,"ĠPromise":7451,"Ġstrict":7452,"jo":7453,"inton":7454,"(list":7455,"Only":7456,">{":7457,"Ġvehicle":7458,"íķ":7459,"ĠPlayer":7460,"106":7461,"ĠDel":7462,"Ġpool":7463,".url":7464,"nesday":7465,"();čĊčĊ":7466,"900":7467,"Ġ\");Ċ":7468,"Local":7469,".\");Ċ":7470,"Ġorganization":7471,"render":7472,"ĠApplication":7473,"Ġsummer":7474,"expected":7475,"NA":7476,"Ġrap":7477,"_obj":7478,"Ġsurface":7479,"ĠPUR":7480,"Ġ},ĊĊ":7481,"Ġvariables":7482,"(message":7483,"Ġopin":7484,".back":7485,"Ð°Ð½":7486,"Ġworkers":7487,"vm":7488,"Co":7489,"ughter":7490,"Ġmaster":7491,"Ġ\"\",":7492,"Ġstories":7493,".User":7494,"Ġcelebr":7495,"inese":7496,"BS":7497,"ĠCommand":7498,"ashboard":7499,"Ġog":7500,"kg":7501,".image":7502,".style":7503,"Ġsteps":7504,"ĠBen":7505,"(args":7506,"404":7507,"ĠPerson":7508,",y":7509,"Ġofficials":7510,"|Ċ":7511,"Ġskills":7512,"vc":7513,"Ġbuilder":7514,"Ġgar":7515,"Account":7516,"ĠAuth":7517,"çĶ":7518,"'])Ċ":7519,"ĠAT":7520,"nn":7521,".Int":7522,"SSERT":7523,"Ġeffective":7524,"LETE":7525,"Ġtools":7526,"ARD":7527,"Ġdigital":7528,"191":7529,"Double":7530,"ĠFind":7531,"RC":7532,"Ġinline":7533,"/r":7534,"ARAM":7535,"ASK":7536,"Ġintent":7537,"aight":7538,"_addr":7539,"Ġrequests":7540,".first":7541,"Ġdebug":7542,"Ġspent":7543,"()));Ċ":7544,"ÅĽ":7545,"Ġprincip":7546,"Logger":7547,"cludes":7548,".use":7549,"Ġsurv":7550,"media":7551,"ĠFebruary":7552,"ĠMac":7553,"Ġmissing":7554,"Ġwife":7555,"Ġtalking":7556,"ĠMake":7557,"Ġcart":7558,"Ġlocated":7559,"Enc":7560,"-a":7561,"chron":7562,"Ġcards":7563,"Ġguy":7564,"Ġpers":7565,"ĠYes":7566,"atever":7567,"ĠAng":7568,"olar":7569,"ĠEven":7570,"Ġaccur":7571,"ĠPower":7572,"ĠGold":7573,"clear":7574,"Process":7575,"Ġrecords":7576,"Ġkilled":7577,".clear":7578,"ĠWARRANTIES":7579,"Ġpurpose":7580,"panel":7581,"JECT":7582,"ÃŃa":7583,"Ġexerc":7584,"WS":7585,"/L":7586,".exports":7587,"Ġ___":7588,"Ġsin":7589,"Servlet":7590,"ĠdÃ©":7591,".delete":7592,"roke":7593,"Sl":7594,"ugh":7595,"ears":7596,"Ġpointer":7597,"Ġhop":7598,"allery":7599,"Ġobs":7600,"covery":7601,"ĉchar":7602,"ĉĉĉĉĉĉĉĉĉĉ":7603,"ĉdef":7604,"ocity":7605,"itchen":7606,"ulations":7607,"ĠFIT":7608,"Ġ).":7609,"straints":7610,"vention":7611,"Ġrequires":7612,"ĠOper":7613,"ME":7614,"OUNT":7615,"allet":7616,"Ġnorm":7617,"IRE":7618,"exas":7619,"Ġprograms":7620,"Ġweak":7621,"'.$":7622,"uing":7623,"ĉĠĠĠĠĠĠĠ":7624,"Ġmil":7625,"Ġfirm":7626,"initely":7627,"_VALUE":7628,"apse":7629,"atisf":7630,"Ġdemand":7631,"_mod":7632,"Ġdescribed":7633,"Ġplaces":7634,"VID":7635,"Ġalone":7636,"Ġexport":7637,"Ġvec":7638,"ĠMax":7639,"Ġactivities":7640,"ictures":7641,"gener":7642,"Ġma":7643,"Ĥ¬":7644,"Ġexpression":7645,"Callback":7646,"_content":7647,"ĠMost":7648,"Ġtesting":7649,"EC":7650,"CHANT":7651,"Ġadjust":7652,".Threading":7653,"(ctx":7654,"Ġagree":7655,"ighest":7656,"Ġui":7657,"ĠLaw":7658,".Y":7659,"><?":7660,"Ġpod":7661,"-lg":7662,"âĢĿĊĊ":7663,"Ġdescribe":7664,"ĠEuropean":7665,"-sh":7666,"ĠPURPOSE":7667,"ORY":7668,"Ġconvers":7669,"ĠIlluminate":7670,"ĠAv":7671,"(ch":7672,"?\"":7673,"chen":7674,"ima":7675,"Document":7676,"Ġoperations":7677,"win":7678,"ĉfunction":7679,".Image":7680,"Ġscen":7681,"/h":7682,"ĠSC":7683,"Ġexplo":7684,":%":7685,"/**čĊ":7686,"NAME":7687,"æĪ":7688,"(var":7689,"Ġdirector":7690,"ONG":7691,"Ġyield":7692,"Ġfeet":7693,"ĠSearch":7694,"ĠIl":7695,"Ġrestaur":7696,"duc":7697,"Ġinteger":7698,"107":7699,"Ġ'';Ċ":7700,"Ġhighly":7701,"checked":7702,"ĠPARTIC":7703,"ERCHANT":7704,"ï¼ī":7705,"Ġoptim":7706,"Queue":7707,"ĠLI":7708,"itation":7709,"Ġtransport":7710,"ission":7711,"fill":7712,"usion":7713,"ĠĠĠĠĠĠĠĠĠĠĠĠĠĠĠĠĠĠĠĠĠĠĠĠĠĠĠĠĠĠ":7714,"ĉbool":7715,"-th":7716,"upt":7717,"Ġessential":7718,"anted":7719,"Ġbenefits":7720,"ĉS":7721,"';čĊ":7722,"iki":7723,"Ġgirls":7724,"iced":7725,"buffer":7726,"]+":7727,"Ġsocket":7728,"Ġprices":7729,"ĠFre":7730,"Ġsat":7731,"Ġwood":7732,"MenuItem":7733,"ARG":7734,"ĠAdmin":7735,"OWN":7736,"dk":7737,"Ġreset":7738,"Ġforms":7739,"ĠÐ¸":7740,"æĸ":7741,"ĠTuesday":7742,"109":7743,"ĠInitialized":7744,"_train":7745,"orary":7746,"ategor":7747,"Ġdt":7748,"Total":7749,"construct":7750,"ilies":7751,"Ġguys":7752,"ÐµÑĢ":7753,"Ġinstruction":7754,"010":7755,"yled":7756,"Ġinternet":7757,"etadata":7758,"ady":7759,"faces":7760,"jection":7761,"ĠJack":7762,"Ġrect":7763,"[-":7764,"ĠLeg":7765,"Ġdevices":7766,"OC":7767,"Ġ*čĊ":7768,"oration":7769,"ertain":7770,"Ġguard":7771,"ostream":7772,"Ġenum":7773,".layout":7774,"Ġ\";Ċ":7775,"voke":7776,"ĠOk":7777,"Home":7778,"(tr":7779,"ETH":7780,"Ġdelay":7781,"Ġpurchase":7782,"dc":7783,"Ġaren":7784,"_once":7785,"ĉĉĉĉĊ":7786,"ror":7787,"draw":7788,".run":7789,"(model":7790,"Timeout":7791,"lik":7792,"ĠArg":7793,".en":7794,"Ġfish":7795,"cpy":7796,"_fe":7797,"ERCHANTABILITY":7798,"(X":7799,"_output":7800,"??":7801,"Ġjo":7802,"andard":7803,"Ġdoll":7804,"errors":7805,"_base":7806,"ĠPARTICULAR":7807,"Ġleader":7808,"Ġcompar":7809,"Ġdoub":7810,"ĠVis":7811,"StackTrace":7812,"-C":7813,"ĠStud":7814,"stitute":7815,"More":7816,"ĠDescription":7817,"WARE":7818,"ads":7819,"ĠÐº":7820,"bind":7821,"=self":7822,"employ":7823,"[n":7824,".all":7825,"-B":7826,"&&":7827,"alm":7828,"Ġculture":7829,"house":7830,"Ġsuffer":7831,"Ġ'%":7832,"Ġstraight":7833,"ĠStar":7834,"udo":7835,"Ġded":7836,"ĠCOM":7837,"Ġconfirm":7838,"ĠGood":7839,".sc":7840,"________________":7841,"DR":7842,"Configuration":7843,"DateTime":7844,"Ġadvert":7845,"Ġcouldn":7846,"async":7847,"stack":7848,"')čĊ":7849,"Kit":7850,"Ġhous":7851,"Ġmechan":7852,"rate":7853,"204":7854,"Ġaudio":7855,"ĉcout":7856,"cores":7857,"Ġspot":7858,"Ġincreasing":7859,"Ġ##":7860,")))":7861,"points":7862,"Ġcompared":7863,"lig":7864,"Ġbehavior":7865,"ĠBY":7866,"ĠAtt":7867,"craft":7868,"headers":7869,"ete":7870,"endregion":7871,"Ġdetail":7872,"ULE":7873,"ĠCommon":7874,"ĉprotected":7875,"ston":7876,"ĠFITNESS":7877,"Ġfresh":7878,"\">ĊĊ":7879,".example":7880,"berg":7881,"Ġmoved":7882,"ĉe":7883,"ĠSaturday":7884,"Ġpayload":7885,"Äĩ":7886,"):ĊĊ":7887,"Ġbey":7888,"urer":7889,"<script":7890,"Ġsymbol":7891,"Ġassum":7892,"Ġpul":7893,"Effect":7894,"Ġhundred":7895,"Tool":7896,"aked":7897,"connection":7898,"Ġvoice":7899,"Ġpd":7900,"Ġtransaction":7901,"Ġlinks":7902,"Err":7903,"ĠIndian":7904,"TC":7905,"atalog":7906,"ni":7907,"sign":7908,"<<\"":7909,"ji":7910,"ya":7911,"Ġdemonstr":7912,"ulated":7913,".St":7914,"Ġinstit":7915,"Ġboost":7916,"Ġcells":7917,"olic":7918,".Pro":7919,":</":7920,"EventListener":7921,"ifying":7922,"ĠDi":7923,"orrow":7924,".execute":7925,"Ġcollege":7926,"Your":7927,"Ġlargest":7928,".dis":7929,"Ġqui":7930,"Ġindividuals":7931,"_buffer":7932,"Ġng":7933,"SA":7934,"ĠControl":7935,"Ġsing":7936,"Ġsuit":7937,"ĠĠĠĠĉ":7938,"SG":7939,"Ġjump":7940,"Ġsmart":7941,"oma":7942,"ĠExp":7943,"Ġ'-":7944,"Ġassist":7945,"Ġsuccessfully":7946,"sys":7947,"ĠCre":7948,"_ref":7949,"ĠThursday":7950,"Ġbur":7951,"ĠÐ´":7952,"Ġbeyond":7953,"Ġnodes":7954,"Details":7955,"inct":7956,"ĠJames":7957,"Ġaffect":7958,"exception":7959,"Ġtypeof":7960,"(čĊ":7961,"-se":7962,"Ġfetch":7963,"`,":7964,"Ġcrusher":7965,"}.":7966,"ĠBO":7967,"Show":7968,"Ġrates":7969,"Ġbon":7970,"-icon":7971,"ĠMedia":7972,"RESS":7973,"ĠValid":7974,"Ð¾Ð»":7975,"Ġfuck":7976,"acks":7977,"Ġstudies":7978,"Me":7979,"Ġowners":7980,"}else":7981,"Ġgrowing":7982,"Variable":7983,"ĠBel":7984,".random":7985,"vement":7986,"onym":7987,"(F":7988,"ĠFALSE":7989,"Ġtorch":7990,"(row":7991,"igo":7992,"structure":7993,"121":7994,"Ġcertainly":7995,"Dep":7996,"ĠGreen":7997,"question":7998,"Ġadding":7999,"ĠDevelop":8000,"_def":8001,"Ġmach":8002,"=%":8003,"ĉĉĠ":8004,"conds":8005,"Project":8006,"Ġreject":8007,"ĠÎ":8008,"Ġpoor":8009,"Ġaware":8010,"114":8011,"ĠBuild":8012,"ĠBritish":8013,"ĠNE":8014,"Ġnumer":8015,"rees":8016,"claim":8017,"Ġmock":8018,"Ġom":8019,"Ġscre":8020,"OLD":8021,".pl":8022,"eler":8023,"Ġcorrespond":8024,"_HE":8025,"Ġbinary":8026,"116":8027,"_order":8028,"ĠSQL":8029,"Ġadvant":8030,"Ġprev":8031,".[":8032,".assertEqual":8033,"plier":8034,"arp":8035,"Ġclosed":8036,"Ġencour":8037,"ĠQString":8038,"aud":8039,"Ġdeveloped":8040,"Ġpermission":8041,".debug":8042,"operator":8043,"Ġ'Ċ":8044,"Ġsym":8045,"atively":8046,"Ã©e":8047,"-color":8048,"ĠGET":8049,"ky":8050,"Ġalthough":8051,"_request":8052,"_element":8053,"................":8054,"_DATA":8055,"Ġamazing":8056,"Ġsb":8057,"ĠDefault":8058,"Events":8059,"Ġfailure":8060,"acle":8061,"Properties":8062,"Ġdream":8063,"Ġdistr":8064,"Ġau":8065,"Ġgenerated":8066,"æķ":8067,"ĠTeam":8068,"USE":8069,"Ġincome":8070,"Ġeye":8071,"_not":8072,"\"],":8073,"_form":8074,"Support":8075,"orders":8076,".Print":8077,"ville":8078,"ĠWednesday":8079,"olver":8080,"Ġoppos":8081,"isation":8082,"ola":8083,"Close":8084,"<p":8085,"_width":8086,"Invalid":8087,"xb":8088,"Ġstrugg":8089,"_action":8090,"Ġtxt":8091,"ĠPath":8092,"alar":8093,"ĠMERCHANTABILITY":8094,"service":8095,"ĠMichael":8096,"ableView":8097,"Debug":8098,"okes":8099,"She":8100,"Ġguess":8101,"ĠJava":8102,"_PATH":8103,"Ġparticularly":8104,"ĠII":8105,"Ġdomain":8106,"å¹´":8107,"Ġreduce":8108,"-left":8109,"real":8110,"Ġappears":8111,"Ġcomo":8112,"ĠUnit":8113,"ĠGovern":8114,"ali":8115,"allel":8116,"ĠJew":8117,"_I":8118,"Ġcos":8119,".color":8120,"ĠGlobal":8121,"Ġtele":8122,"ben":8123,"_trans":8124,"Ġreasons":8125,"Ġemb":8126,"ensity":8127,"lines":8128,"omin":8129,"Screen":8130,"Ð°ÑĤ":8131,"pects":8132,"clip":8133,"foo":8134,"rent":8135,"Ġaf":8136,"Ġdanger":8137,"iling":8138,"Names":8139,"Our":8140,"Ġdistribution":8141,"While":8142,"SL":8143,"Write":8144,"Ġgoto":8145,"Ġcolors":8146,"Ġpowerful":8147,"kin":8148,"Ġdepth":8149,"ercial":8150,"ĠCongress":8151,"ĠMarket":8152,"Db":8153,"under":8154,"ĠLast":8155,"ÃŁ":8156,"greg":8157,"Ġposts":8158,"_URL":8159,"otos":8160,"Don":8161,"Ġmicro":8162,"Ġarrest":8163,"Ð¿":8164,"Ġ(@":8165,"ĠHot":8166,"ĠIndex":8167,";&":8168,"#!":8169,"ĠNor":8170,"ĠCap":8171,"-(":8172,"Ġinterested":8173,"pear":8174,"Ġrent":8175,"Ġalbum":8176,"olicy":8177,".lang":8178,".trans":8179,".format":8180,"Ġ{čĊčĊ":8181,"phere":8182,"Ġaxis":8183,"ĠBusiness":8184,"ersistence":8185,"urr":8186,"Ġminimum":8187,"endor":8188,"ĠSD":8189,"113":8190,"ĠInternet":8191,"å¤":8192,"Exp":8193,"iverse":8194,"MM":8195,"Ġobvious":8196,"Ġbasis":8197,"Ġscience":8198,"Ġbudget":8199,"izations":8200,"PA":8201,"Ġflags":8202,"pret":8203,"LOCK":8204,"Ġvariety":8205,"Ġtruth":8206,"dt":8207,"Ġgone":8208,"Ġbattle":8209,"<std":8210,"ĠSil":8211,"rf":8212,"uda":8213,"Ġerot":8214,"ĠCam":8215,"Ġstation":8216,"Ġ'</":8217,"cheme":8218,"ĠSun":8219,"Ġfinished":8220,"Ġshop":8221,"ĠKore":8222,"Ġeight":8223,"_REG":8224,"ND":8225,">,":8226,"\"><?":8227,"(num":8228,"ĉinline":8229,"Transaction":8230,".On":8231,"Ġmail":8232,"rey":8233,"results":8234,"Ġnav":8235,"IMIT":8236,"_ids":8237,"Make":8238,"åĬ":8239,"Modal":8240,"ĠLOG":8241,"ĠSur":8242,"Ġinstanceof":8243,"Ġoverall":8244,"ĠInformation":8245,"Ġconstruction":8246,"_FILE":8247,"but":8248,"Ġmedic":8249,"Ġduration":8250,"itness":8251,"agent":8252,"AV":8253,"Ġseven":8254,"olf":8255,"Ġ}}Ċ":8256,"\"],Ċ":8257,"170":8258,"122":8259,"Ġcalling":8260,"Ġans":8261,"throws":8262,"orizontal":8263,"ĠuseState":8264,".fl":8265,"ĠStatus":8266,"ĠOnline":8267,"RR":8268,"ĠRich":8269,"ĠHill":8270,"Ġbrain":8271,"Ġfollowed":8272,"240":8273,"emic":8274,"Ġslight":8275,"Ġinsurance":8276,".Array":8277,"Ġabstract":8278,"ĠSum":8279,"redirect":8280,"owner":8281,"(msg":8282,"ĠClinton":8283,"Non":8284,"ĉex":8285,"Ġvolume":8286,"ĠEventArgs":8287,"-L":8288,"ĠDim":8289,"ĠMart":8290,"Ġcursor":8291,"Ġimplementation":8292,"urred":8293,"Ġlarger":8294,");ĊĊĊ":8295,"'+":8296,".transform":8297,"Ġupload":8298,"ĠĠĠĠĠĠĠĠĠĠĠĠĠĠĠĠĠĠĠĠĠĠĠĠĠĠĠĠĠĠĠĠĠĠĠĠĠĠĠĠĠĠĠĠĠĠĠĠĠĠĠĠĠĠĠ":8299,"Draw":8300,"nel":8301,"ĉfloat":8302,"qrt":8303,"ĠNetwork":8304,"Ġtit":8305,"Axis":8306,".android":8307,"Ġcompleted":8308,"Ġmur":8309,"Ġcolumns":8310,"xc":8311,"Ġsupply":8312,"iminal":8313,"Ġspr":8314,"================================================================":8315,"Ġunits":8316,"(u":8317,"mi":8318,"replace":8319,"[key":8320,"à¹":8321,"antic":8322,"Ġpayment":8323,",B":8324,"ĠApple":8325,"gin":8326,"Required":8327,"#+":8328,"lands":8329,"Ġsqu":8330,"Ġfactor":8331,"dec":8332,"Ġstrength":8333,"Ġboy":8334,"Ġbalance":8335,"Ġsources":8336,"screen":8337,"-top":8338,"ĠAmazon":8339,"Ġhidden":8340,"ÐµÑĤ":8341,"_client":8342,"Ġeat":8343,".display":8344,"ĠÂ»":8345,"Ġtrigger":8346,"anager":8347,"Ġtro":8348,"Ġclaims":8349,"ford":8350,"ĠCompany":8351,"Ġgift":8352,",:":8353,"_app":8354,"handle":8355,"Ġproduce":8356,"/lib":8357,"512":8358,"Ġ-*":8359,"ĉset":8360,"'];":8361,"arc":8362,"ander":8363,"ĠEngine":8364,"Ġattributes":8365,"task":8366,"<=":8367,"(N":8368,"Ġwarm":8369,"which":8370,"ĠFore":8371,"agnost":8372,"mys":8373,"Ġtal":8374,"ĠSal":8375,"gi":8376,"ĠPrint":8377,"ĠTRUE":8378,"ĠÐ¾":8379,".UI":8380,"Ġflash":8381,"roperty":8382,".location":8383,"ĠMill":8384,"bi":8385,"contr":8386,".request":8387,"ĠSam":8388,"Ġnegative":8389,"kit":8390,"Ġsett":8391,".printStackTrace":8392,"abe":8393,"ĉi":8394,"Ġburn":8395,"Ġsociety":8396,"Cache":8397,"ĠSecurity":8398,".models":8399,"ĠWARRANTY":8400,"_up":8401,"ceive":8402,"Ġclients":8403,".Tr":8404,"Ġproviding":8405,"Ġrout":8406,"material":8407,"Ġ||Ċ":8408,"ĠSer":8409,"ĠOffice":8410,"FTWARE":8411,"Ġ'$":8412,"Ġfoc":8413,"Ġexcell":8414,"Ġcat":8415,"normal":8416,"Ġdetermine":8417,"ĉuint":8418,"Pane":8419,"Ġemployees":8420,"ĠTexas":8421,"Ġtraff":8422,"ĠReport":8423,"anta":8424,"ĠBox":8425,"Ġdjango":8426,"Ġpartner":8427,"EB":8428,"LINE":8429,"Ġfeeling":8430,"Ġcivil":8431,"(float":8432,"Sql":8433,"Ġwouldn":8434,".init":8435,".left":8436,"-v":8437,"_level":8438,"'}":8439,"AF":8440,"Ġloading":8441,"ĠOnly":8442,"Ġcookies":8443,"ĠGl":8444,"CO":8445,"Ġstrategy":8446,"('./":8447,"Ġship":8448,"poses":8449,"Ġsignal":8450,"Ġalpha":8451,".pop":8452,"Radius":8453,"Ġreplace":8454,"_DIR":8455,"counter":8456,"bservable":8457,"ela":8458,"Weight":8459,"hash":8460,"bose":8461,"fx":8462,"ĠEmail":8463,"Ġrefer":8464,"localhost":8465,"_RO":8466,"iques":8467,"Step":8468,"Ġahead":8469,"(View":8470,"ĠServices":8471,"ĠJson":8472,"essor":8473,"Ġpun":8474,"Ġappropriate":8475,"akers":8476,"osen":8477,"posing":8478,"Ġagent":8479,"fc":8480,"Ġtransfer":8481,"Ġinvalid":8482,"ĠResearch":8483,"Vertex":8484,"Ġgay":8485,"Ġjournal":8486,"[x":8487,"Ġ\"\",Ċ":8488,"ĠWell":8489,".Tasks":8490,"Spec":8491,"Ġol":8492,"Ġspend":8493,"ĠAustralia":8494,"Match":8495,".junit":8496,"ĠĠĠĠĠĠĠĠĠĠĠĠĠĠĠĠĠĠĠĠĠĠĠĠĠĠĠĠĠĠĠĠĠĠĠĠĠ":8497,"ĠMAX":8498,"izable":8499,"clusive":8500,"_valid":8501,"Ġquarter":8502,"yan":8503,"005":8504,"ĠEdit":8505,"arden":8506,"=new":8507,"Ġfrag":8508,"Bit":8509,"zi":8510,"aine":8511,"udd":8512,".Object":8513,"debug":8514,"Ġcash":8515,"_IM":8516,"Ġeen":8517,"Ġcommercial":8518,"ĠVideo":8519,"loader":8520,"Ġfixed":8521,"Ġapplications":8522,"Ġ_,":8523,"ĠRussia":8524,"itect":8525,"_(":8526,"ĠBlock":8527,"Ġsan":8528,"ĠTom":8529,"Ġperhaps":8530,"Ġsig":8531,"levant":8532,"Ġcorpor":8533,"ataset":8534,"ronic":8535,"xe":8536,"Ġeth":8537,"Some":8538,"pop":8539,"_OK":8540,"Ġtend":8541,".Res":8542,"_and":8543,"Ġreviews":8544,"Ġwild":8545,"117":8546,"Ġdegree":8547,".O":8548,".objects":8549,"_args":8550,"nil":8551,"Ġdisabled":8552,"Parent":8553,"Ġnotes":8554,"Ġ\"\"Ċ":8555,"(state":8556,"istrict":8557,"Ġlogging":8558,".IO":8559,"ĠMal":8560,"DM":8561,"Ġxml":8562,"ĠRobert":8563,"elen":8564,"layout":8565,"fol":8566,"']))":8567,",b":8568,"ĠJer":8569,"filename":8570,"Ġfan":8571,"ĠCustom":8572,"=\"\"":8573,"ĠDie":8574,"Bundle":8575,".utils":8576,"Ġtrip":8577,"MB":8578,"Ġsoft":8579,"_MODE":8580,"Ġapplicable":8581,"Ġupper":8582,"ERVER":8583,"_al":8584,"_LOG":8585,"Here":8586,"wp":8587,"ĠServer":8588,"ĠClient":8589,"Ġchem":8590,"Scroll":8591,"Ġhighest":8592,"ĠSelect":8593,"Ġ\"@":8594,"ĠWhy":8595,"Sec":8596,"heel":8597,"Operation":8598,"Ġconnected":8599,"irmed":8600,"Ġcitiz":8601,"ĠChe":8602,"Ġforces":8603,"Ġwww":8604,"Root":8605,"ANCE":8606,"Many":8607,"icip":8608,"rgan":8609,"220":8610,"ĠTor":8611,"ĠPress":8612,"ĠMor":8613,"-line":8614,"uled":8615,">\\":8616,"Ġthus":8617,"ĠRegister":8618,"hol":8619,"ĠChinese":8620,"Ġposted":8621,"Ġmagn":8622,"abilities":8623,"Ġdisease":8624,"Ġremains":8625,"ĠProf":8626,"-form":8627,"Ġcin":8628,"organ":8629,"icate":8630,"Ġstress":8631,"]*":8632,"Ġ----------------------------------------------------------------":8633,"_context":8634,"orry":8635,"Ġdied":8636,"mat":8637,"Ġstarts":8638,".Message":8639,"Ġruns":8640,"Ġguide":8641,"Ġwarranty":8642,"entials":8643,"dict":8644,"ĠSize":8645,"uler":8646,"Ġresponsible":8647,"_SET":8648,"Ġcontaining":8649,"ĠPrice":8650,"||":8651,"350":8652,"FS":8653,"Ġemp":8654,"_button":8655,"(uint":8656,"Ġsuff":8657,"pth":8658,"Ġdefinitely":8659,"pute":8660,"Ġmarketing":8661,"ĠWH":8662,"ĠSie":8663,"+=":8664,"OLOR":8665,"Ġconsult":8666,"Ġsigned":8667,"Ġsequence":8668,"lee":8669,"Ġrequirements":8670,"hy":8671,"Express":8672,"MT":8673,"sey":8674,"Ġult":8675,"å®":8676,"elligence":8677,"Ġanaly":8678,"Ġdress":8679,"engine":8680,"ĠGreat":8681,"ĠAndroid":8682,"ĠAlex":8683,"mode":8684,"Dictionary":8685,".Date":8686,"ä½":8687,"VICE":8688,"Ġfamilies":8689,"ĠRussian":8690,"ĠTimes":8691,".call":8692,"$(":8693,"Profile":8694,"Ġfolder":8695,"ches":8696,"Ġlegis":8697,"_row":8698,"unes":8699,"ÙĦ":8700,"Ġ}).":8701,"Assert":8702,"agen":8703,"ĠHand":8704,"Iter":8705,"Ġbiggest":8706,"oreach":8707,"Ġpolic":8708,"Ġpermissions":8709,"Ġshowed":8710,"ĠElement":8711,"Ġtopic":8712,"âĢĶâĢĶ":8713,"road":8714,"ĠBank":8715,"record":8716,"Ġpartners":8717,"ĠRef":8718,"essions":8719,"Ġassess":8720,"UST":8721,"ĠParty":8722,"produ":8723,"LC":8724,"Ġul":8725,".form":8726,"hide":8727,"copy":8728,"UTF":8729,"ĠSOFTWARE":8730,"čĊčĊčĊ":8731,"ĠLin":8732,"una":8733,"ugar":8734,"Ġadministration":8735,"Ġopening":8736,"Ġscan":8737,"Ġcontinued":8738,"component":8739,".sp":8740,"Ġhappens":8741,"ummy":8742,"ĠPR":8743,".File":8744,"ĠDownload":8745,"Loading":8746,"di":8747,"Ġwaiting":8748,"_ADD":8749,"Tab":8750,".querySelector":8751,"Ġeconomy":8752,"ĠFrench":8753,"txt":8754,"Ġfant":8755,"_;Ċ":8756,"Holder":8757,"SH":8758,"004":8759,"Ġnumpy":8760,"Ġstreet":8761,"Ġmale":8762,"\\Model":8763,"anging":8764,"333":8765,"ĠBill":8766,"Ġpreviously":8767,"BI":8768,"ĠSecret":8769,"Ġmist":8770,"ĠField":8771,"ups":8772,"ĠProcess":8773,"Ġkept":8774,"ĠOT":8775,"Ġtraditional":8776,".i":8777,"amin":8778,"Ġhelps":8779,"Any":8780,"origin":8781,"ilters":8782,"ju":8783,"desc":8784,"ĠAccount":8785,"Ġ)čĊ":8786,"ktop":8787,"olly":8788,"Ġfs":8789,"Ġê":8790,"Ġut":8791,"Ġcentral":8792,"(test":8793,".An":8794,"Ġsatisf":8795,"GR":8796,"ĠFull":8797,"Ġheat":8798,"iber":8799,"Ġonto":8800,"mos":8801,"Schema":8802,"Ġfactory":8803,"\".$":8804,"aws":8805,"Statement":8806,"(target":8807,"ĉnew":8808,".be":8809,"Ġguest":8810,"Ġmal":8811,"ARY":8812,"Ġreached":8813,"Ġmouse":8814,"Ġchallenge":8815,"ĉdouble":8816,"ĠTem":8817,"Ġterror":8818,"Ġextract":8819,"_TO":8820,"Ġseparate":8821,"Ġmir":8822,"help":8823,"Ġcapacity":8824,"ĠProperty":8825,"kan":8826,"_create":8827,"ĠLight":8828,".parent":8829,"Ġunderstanding":8830,"Ġeasier":8831,"Ġ|=":8832,"Ġenh":8833,"Ġfat":8834,"Ġprotest":8835,"amm":8836,"_AT":8837,"-of":8838,"ils":8839,"ĠOh":8840,"Ġpsych":8841,"Ġ$.":8842,"inds":8843,"Ġrelative":8844,"shop":8845,"short":8846,"ĠSand":8847,"210":8848,"uestion":8849,"Ġfear":8850,"/ĊĊ":8851,".context":8852,"Ġschools":8853,"Ġserve":8854,"zone":8855,"_db":8856,"Ġmajority":8857,"example":8858,"Ġlang":8859,"ĉĠĠ":8860,"Register":8861,"endo":8862,"Ġprocessing":8863,"_template":8864,"-user":8865,"Ġeg":8866,"COM":8867,"ĠBlue":8868,"iro":8869,"Ġremote":8870,"ĠIT":8871,"#!/":8872,"Ġredistrib":8873,"124":8874,"raz":8875,"ĠSince":8876,"ĠTur":8877,"135":8878,"Background":8879,"===":8880,"Ġreflect":8881,"Ġpros":8882,"cmd":8883,"Ġwhom":8884,"Compat":8885,"ĠAre":8886,"Identifier":8887,"ĠThom":8888,"_port":8889,"gu":8890,"Ġmonitor":8891,"rm":8892,"Ġpatient":8893,"verter":8894,"Ġgain":8895,"-ui":8896,"Inst":8897,"Ġdies":8898,"118":8899,"Area":8900,"_filter":8901,"Ġgrat":8902,"Ġreality":8903,"ordinate":8904,"olved":8905,"Contact":8906,"Ġcompliance":8907,"_or":8908,"ĠVar":8909,"dl":8910,"Ġappend":8911,"GER":8912,"(max":8913,".render":8914,"Ġdynamic":8915,"ordinates":8916,"_options":8917,"_column":8918,"Ġbatter":8919,"space":8920,"La":8921,"ĠSource":8922,"/bin":8923,"Ġdos":8924,"ĠBoard":8925,"ĠThread":8926,"ĠAL":8927,"(config":8928,"144":8929,"ĠMer":8930,"Ġmiles":8931,"_header":8932,"ETHOD":8933,"izz":8934,"Ġbenefit":8935,"Ġintegr":8936,"(current":8937,"ulo":8938,".default":8939,"ĠDiv":8940,"Ġton":8941,"oth":8942,"ervation":8943,"edom":8944,"Ġbaby":8945,"ceived":8946,".top":8947,"riority":8948,"ĠLocal":8949,"riage":8950,"Ġattacks":8951,"Ġhospital":8952,"168":8953,"Ġfemale":8954,"ĠLogin":8955,"ĠFlor":8956,"Ġchain":8957,"ashion":8958,"Texture":8959,"Save":8960,"Ġfarm":8961,".contains":8962,".Test":8963,"Ġknows":8964,"Ġgenerally":8965,"ipeline":8966,"Ġmeant":8967,"encia":8968,"Ġnicht":8969,"Ġcontents":8970,"PM":8971,"chedule":8972,"(line":8973,"CG":8974,"job":8975,"ĠReal":8976,"uer":8977,"firm":8978,"ĠØ":8979,"etro":8980,"\"`Ċ":8981,"Ġspeech":8982,"Ġthr":8983,"foreach":8984,"Ġwarn":8985,"ĉl":8986,"Ġheavy":8987,"<li":8988,"Ne":8989,"Ġinvestigation":8990,"Math":8991,"-title":8992,"Ġchurch":8993,"Ġdespite":8994,"chain":8995,"Ġwhatever":8996,"arian":8997,"fn":8998,"Ġmeta":8999,"})ĊĊ":9000,"UFF":9001,"Ġregarding":9002,"_SUCCESS":9003,"mes":9004,"ĠIntent":9005,"Ġresolve":9006,"poss":9007,"ira":9008,"force":9009,"oice":9010,"Ã¢":9011,"Ġpm":9012,"Ġupdates":9013,"Arr":9014,"ĠÑ":9015,"testing":9016,"Ġtoward":9017,"ntax":9018,"ëĭ":9019,"Ġlisten":9020,"Ġgoals":9021,"InstanceState":9022,"Dr":9023,"Ġrare":9024,"Ġtrail":9025,"Keys":9026,"Cal":9027,"Car":9028,"ĠPeople":9029,"ĉlocal":9030,"classes":9031,"Reference":9032,".forEach":9033,"emb":9034,"activ":9035,"Ġprim":9036,"redict":9037,"Ġrad":9038,"æķ°":9039,".Back":9040,"Ġspread":9041,"Ġclock":9042,"Ġvir":9043,"editor":9044,"Ġefforts":9045,"Ġbranch":9046,"Ġindust":9047,"Ġmotor":9048,"Ġamb":9049,"Ġdatetime":9050,"Ġrencont":9051,"ĠChristian":9052,"ĠAmericans":9053,"full":9054,"Ġfmt":9055,".main":9056,"Ġcaused":9057,"_update":9058,"ĠContent":9059,"ATCH":9060,"Ġbath":9061,"ĠEach":9062,"Ġradio":9063,"achment":9064,"uzz":9065,"Submit":9066,"Ġrestrict":9067,"abin":9068,"ĠLoad":9069,"Ġextension":9070,"Ġessay":9071,"Ġhat":9072,"aviour":9073,"toBe":9074,"\":[":9075,"Ġoffered":9076,"Ġvill":9077,"(double":9078,"119":9079,"æĹ¥":9080,"bc":9081,"_free":9082,"ĠMiss":9083,"ĠBer":9084,"Ġè":9085,"ĠLike":9086,"Ġhelped":9087,".getName":9088,"_AL":9089,"Ġspirit":9090,"ĠApache":9091,"ws":9092,"Ġtherefore":9093,"(params":9094,"_img":9095,"Ġpeace":9096,"Ġincor":9097,"ĠEXPECT":9098,"Ġminor":9099,"ipes":9100,"ĉdata":9101,"selector":9102,"city":9103,"trie":9104,".base":9105,"_frame":9106,"Ġopened":9107,"/json":9108,"LY":9109,"nu":9110,".De":9111,"tf":9112,"margin":9113,".Parse":9114,"Ġpi":9115,"Ġeq":9116,"bd":9117,"Fields":9118,"ĠTree":9119,"Ġban":9120,"istan":9121,"ĊĠĠĠĠĠĠĠĠĊ":9122,"ĉgl":9123,"Ġproduced":9124,"system":9125,"Mark":9126,"_hash":9127,"Ġbg":9128,"Ġconstit":9129,"ĠLeague":9130,"Ġmission":9131,"_format":9132,"([Ċ":9133,"clusion":9134,"!\"":9135,"Ð·":9136,"break":9137,"ĉswitch":9138,"Ġther":9139,"Transform":9140,"Ġfootball":9141,"-link":9142,"route":9143,".auth":9144,"Ġbag":9145,"overs":9146,"Ġenabled":9147,"Ġrac":9148,"(I":9149,"CR":9150,"ancing":9151,"Ġmanaged":9152,"_q":9153,"NGTH":9154,"Ġmac":9155,"ĠAuto":9156,"amente":9157,"Ġ'',":9158,".Append":9159,"Ġpin":9160,".item":9161,"acking":9162,"Ġoccas":9163,"person":9164,"Ġti":9165,".Reg":9166,"Ġhaven":9167,"Ġglass":9168,"Ġ\"</":9169,"ĠSimple":9170,"Print":9171,"Ġsurround":9172,"NO":9173,"ãĢĤĊ":9174,"ĠĠĠĠĠĠĠĠčĊ":9175,"ĠMany":9176,"Ġ\"_":9177,"Ġweekend":9178,"Ġsomew":9179,".params":9180,"small":9181,"ATED":9182,"Ġplugin":9183,"fields":9184,"ĠInitialize":9185,"oon":9186,"atile":9187,"ye":9188,"Ġvous":9189,"LAG":9190,"Ġolder":9191,"Ġgam":9192,"Ġextremely":9193,"Ġhet":9194,"enum":9195,"ĠSET":9196,"xff":9197,"Ġtimer":9198,"/index":9199,"Ġcritical":9200,"Rows":9201,"_argument":9202,"Ġexecute":9203,"Ġshowing":9204,".xml":9205,"-list":9206,"Role":9207,"typename":9208,"_method":9209,"that":9210,"cher":9211,"ĠâĨ":9212,"XT":9213,"Ġthousands":9214,"ĉn":9215,"Ġresp":9216,"_price":9217,"olut":9218,"Ag":9219,"ĠTwo":9220,"Ġbecomes":9221,"Ġhus":9222,".Use":9223,"theme":9224,"urb":9225,"Ġ/*Ċ":9226,"erialize":9227,"ARN":9228,"Ġlose":9229,"Lower":9230,"Ġvel":9231,"Ġdefense":9232,"condition":9233,"Ġbes":9234,"Ġdry":9235,"Ġscroll":9236,".Show":9237,"IEL":9238,"Ð¾ÑĢ":9239,"ĠRest":9240,"Where":9241,"oods":9242,"ĠJes":9243,"Ġwire":9244,"_INFO":9245,"Ġstrings":9246,"gment":9247,"Ġmatches":9248,"Ġelectric":9249,"Ġexcellent":9250,"ĠCouncil":9251,"idade":9252,"Ġwx":9253,"push":9254,"_entry":9255,"Ġtasks":9256,"Ġrich":9257,"sa":9258,"ĠSmith":9259,"UNCTION":9260,"Pointer":9261,"pective":9262,"131":9263,"Ġwidget":9264,"ista":9265,"Ġagency":9266,"Ġsich":9267,"ologies":9268,"Ġtrial":9269,"alysis":9270,".check":9271,"ARK":9272,"ĠonChange":9273,"about":9274,"',$":9275,"(val":9276,"Ġplaced":9277,"_NO":9278,"Ġdan":9279,".equal":9280,"ĉĠĠĠĠĠ":9281,"Ġweather":9282,".game":9283,"Ġdestination":9284,"_USER":9285,"iece":9286,"Ġprovider":9287,".last":9288,"plex":9289,"Note":9290,"/js":9291,"ĠpÃ¥":9292,"Ġplanning":9293,"attribute":9294,"PRO":9295,"atches":9296,"Ġ<-":9297,"Ġseeing":9298,"Ġcancel":9299,"_ind":9300,".keys":9301,"Ġvisual":9302,"ĠCurrent":9303,"ĠCollege":9304,"ĠRock":9305,"Ġagreement":9306,"ĠStore":9307,"oving":9308,"Ġcorner":9309,"ampions":9310,"ISE":9311,"Fin":9312,"Ġprotection":9313,"Ġfi":9314,"Play":9315,"plugin":9316,")}":9317,".frame":9318,"-z":9319,"Ġtransition":9320,"igin":9321,"Ġcandidate":9322,"ĠUnion":9323,"_values":9324,"(map":9325,"cle":9326,"Ġtrend":9327,"wide":9328,"aren":9329,"Loc":9330,"UTH":9331,"ĠBay":9332,"Ġsmaller":9333,"ius":9334,"141":9335,"well":9336,"Ġcriminal":9337,"Ġconflic":9338,"bert":9339,"_INT":9340,"Ġinvestment":9341,"custom":9342,"ĠSession":9343,"_write":9344,"ania":9345,"ĠMass":9346,"_EQ":9347,"_NOT":9348,"Ġviolence":9349,"Argument":9350,"_email":9351,"Ġbelong":9352,"_function":9353,"Ġenemy":9354,"ema":9355,"ĠAddress":9356,".empty":9357,"Ġinner":9358,"ĠContact":9359,"Loader":9360,"<input":9361,"ĠCA":9362,"lot":9363,"Ġpictures":9364,"ĠSupport":9365,"_names":9366,"188":9367,"Layer":9368,"ĠClick":9369,"Sum":9370,"Ã¦":9371,"ĠLook":9372,"uous":9373,"Lib":9374,"Flags":9375,"team":9376,"EP":9377,"189":9378,"hat":9379,"override":9380,"apsed":9381,"Ġlabels":9382,"quis":9383,"ĠStream":9384,"_device":9385,"ĠCommit":9386,"(root":9387,"\"}":9388,".isEmpty":9389,"126":9390,"ĉM":9391,"Ġangle":9392,"ĠBecause":9393,"%%%%%%%%":9394,"Ġaim":9395,"Ġstick":9396,"stmt":9397,"agraph":9398,"answer":9399,"Ġclin":9400,"ĠIsl":9401,".ext":9402,"ĠINT":9403,"Ġstyles":9404,"Ġborn":9405,"Ġscr":9406,"Ġexpand":9407,"Ġraised":9408,"TextBox":9409,"ILL":9410,"------------------------------------------------":9411,"HTTP":9412,"132":9413,">)":9414,"_char":9415,"resource":9416,"Ġepisode":9417,"Ġ'_":9418,"ĠEs":9419,"ĠEarth":9420,"ÂłÂł":9421,"UPDATE":9422,"133":9423,"ĠSou":9424,"uis":9425,"types":9426,"Ġmas":9427,"Ġfav":9428,"Ġconstruct":9429,"_rate":9430,"eras":9431,"Ġ|Ċ":9432,"roperties":9433,"Ġexternal":9434,"Ġapplied":9435,"Ġprefix":9436,"oted":9437,"lers":9438,"Ġcold":9439,"ĠSP":9440,"ĠChurch":9441,"ĠOutput":9442,"losed":9443,"çļ":9444,"ificate":9445,"operation":9446,"herit":9447,"xFF":9448,".env":9449,"_err":9450,"osh":9451,"Direction":9452,"Cancel":9453,"ĠFrank":9454,"Ġfinding":9455,".)ĊĊ":9456,"Ġrouter":9457,"ãĥ»":9458,"ses":9459,"Ġcrow":9460,"=='":9461,"Ġsand":9462,"Ġrid":9463,"iture":9464,"Ġentre":9465,"Ġobserv":9466,"Ġvac":9467,"ðŁ":9468,"-T":9469,"Art":9470,"night":9471,".search":9472,"Ġexchange":9473,"Ġdistrict":9474,".os":9475,"Ġdepartment":9476,"Ġdocuments":9477,"Ġcentury":9478,"ĠNext":9479,"Host":9480,"ĠKIND":9481,"Ġsusp":9482,"-P":9483,"rend":9484,".em":9485,"uite":9486,"isters":9487,"(json":9488,"ĠAnn":9489,"wt":9490,"ati":9491,"ĠHTML":9492,"when":9493,"Directory":9494,"Ġshut":9495,"<a":9496,"edy":9497,"Ġhealthy":9498,"Ġtemperature":9499,"ĠGen":9500,"Ġmetal":9501,"Ġsubmit":9502,"ĠDO":9503,"Ġattract":9504,"Ġ{};Ċ":9505,"ĠWord":9506,"Ġll":9507,"Ġseemed":9508,"ko":9509,"IED":9510,"Ġlabor":9511,".Context":9512,"Ġasset":9513,"you":9514,"Ġcars":9515,"ĠColumn":9516,"ĠrÃ©":9517,"Ġsquare":9518,"ĠNSString":9519,"âĢĿ,":9520,"apes":9521,"...Ċ":9522,"Ġthanks":9523,"(props":9524,"Ġtick":9525,"Ġexperiment":9526,"Ġprison":9527,"tree":9528,"-text":9529,"ĠIOException":9530,"-width":9531,"_STATUS":9532,"fast":9533,"-body":9534,"-header":9535,"Ġguar":9536,"crete":9537,"ĠTim":9538,"Ġclearly":9539,"ĠRepublican":9540,"Ġjustify":9541,"Ð¸ÑĤ":9542,"ĉĠĠĠĠ":9543,"cache":9544,";//":9545,"Ġpresence":9546,"Ġfactors":9547,"Ġemployee":9548,"]))":9549,"Member":9550,"Ġselector":9551,"bor":9552,"ĠMex":9553,"çļĦ":9554,"utex":9555,"_tag":9556,"ailure":9557,"ĠNet":9558,"Ġreli":9559,"EG":9560,"Ġfprintf":9561,"Ġteen":9562,"loss":9563,"Ġleaving":9564,"134":9565,"Delegate":9566,"Ġbeat":9567,"Ġminute":9568,"subscribe":9569,"Ġredistribute":9570,"Constants":9571,"Ġcancer":9572,"/{":9573,"BL":9574,"Ġspan":9575,"ĠChild":9576,"Center":9577,"Ġearth":9578,"YS":9579,"ĠLevel":9580,"Ġsea":9581,".support":9582,".inner":9583,".Item":9584,"illing":9585,"ĠĠĠĠĊĠĠĠĠĊ":9586,"ĠLabel":9587,"320":9588,"ĠEst":9589,"(arg":9590,"145":9591,"boBox":9592,"ĉforeach":9593,"cos":9594,"Failed":9595,"swers":9596,"Editor":9597,"ront":9598,"ĠMP":9599,"expr":9600,"ĠLife":9601,"Ġ??":9602,"Ã¶r":9603,"Ġattend":9604,"ĠQue":9605,"Ġspecies":9606,"-D":9607,"Ġaus":9608,"Struct":9609,"Ġadvantage":9610,"oston":9611,"-block":9612,"initial":9613,"CRE":9614,"Ġtruly":9615,"Ġcompare":9616,"orney":9617,"Ġspect":9618,"Full":9619,"bes":9620,"Ġvisible":9621,"Ġmess":9622,"stances":9623,"Ġcloud":9624,"_version":9625,"Ġfurn":9626,"icago":9627,"LOW":9628,"Ġtraffic":9629,"Ġfol":9630,"rypto":9631,"Ġdeclar":9632,"Ġslot":9633,"ĠExt":9634,"ĠEngland":9635,"ĠUnder":9636,"Ġta":9637,"letter":9638,"203":9639,"Ġofficer":9640,"ĠDonald":9641,"Yes":9642,"_json":9643,"ITableView":9644,"ĠUSE":9645,"mployee":9646,"Ġopinion":9647,"ĠAut":9648,"border":9649,"Ġadvice":9650,"Ġautomatically":9651,"isco":9652,"Ġmm":9653,".vis":9654,"aml":9655,"Ġinitialize":9656,"Ġ({":9657,"Ġ;ĊĊ":9658,"Ġgeneration":9659,"Ġbits":9660,"clipse":9661,"Ġunf":9662,"utors":9663,"plt":9664,"Ġdelta":9665,"estroy":9666,"isis":9667,"<br":9668,"Ġlimitations":9669,"Ġended":9670,"ĠMad":9671,"ilm":9672,"These":9673,"187":9674,"ĠMinister":9675,"Ġchart":9676,"Fragment":9677,"Ġindependent":9678,"Year":9679,"Ġinstr":9680,"Ġtags":9681,"AVE":9682,"ĠArch":9683,"stop":9684,"Progress":9685,"Ġmi":9686,"Ġlearned":9687,"Ge":9688,"Ġhotel":9689,"151":9690,"SM":9691,"TYPE":9692,"Ġcy":9693,"ERSION":9694,"unately":9695,"limit":9696,"sel":9697,"Ġmovies":9698,"Ġsteel":9699,"oz":9700,"gb":9701,"ĠCamp":9702,"site":9703,"ĠLogger":9704,"PLE":9705,"Ð¾Ð´":9706,".right":9707,"ĠCore":9708,"Ġmixed":9709,"step":9710,"Ġputs":9711,"super":9712,"Router":9713,"186":9714,".Http":9715,"222":9716,"lyph":9717,"ĠColors":9718,"Ġandroidx":9719,".str":9720,"Ġinnov":9721,"Ġdeck":9722,"'>Ċ":9723,"apers":9724,"](":9725,"continue":9726,"spec":9727,"ĠRoad":9728,"ASH":9729,"iliar":9730,"Ġcontinues":9731,"Ġappoint":9732,"Ġ#Ċ":9733,"ĠVir":9734,"Ġ?>\"":9735,"Ġbin":9736,"}\",":9737,"going":9738,"each":9739,"BD":9740,"185":9741,"ĠAccess":9742,"Doc":9743,"ĠManagement":9744,"BER":9745,"asket":9746,".getInstance":9747,"129":9748,"Ġestablished":9749,"socket":9750,"INS":9751,"ĉvirtual":9752,"ĉresult":9753,"READ":9754,"_height":9755,"152":9756,"ĠFont":9757,"Ġ();Ċ":9758,"_html":9759,"Ġneighbor":9760,"lor":9761,"Ġgather":9762,"Ġ})ĊĊ":9763,"Ġidentity":9764,"Ġfab":9765,"padding":9766,"ĠRoute":9767,"Enumerable":9768,"Ã´":9769,"Ġforced":9770,"/jquery":9771,".ĊĊĊĊĊĊ":9772,"resents":9773,"_left":9774,".Param":9775,"ĉthrow":9776,"ĠHam":9777,"Ġeventually":9778,"acer":9779,"pub":9780,"Ġtra":9781,"unique":9782,"del":9783,"ĠFlorida":9784,"ĠClean":9785,"xa":9786,"ĠÂ·":9787,"Ġvalidate":9788,"Visual":9789,"Expression":9790,"_func":9791,"member":9792,"ĉh":9793,"trl":9794,"136":9795,"ĉG":9796,"napshot":9797,"ĠPropTypes":9798,"vin":9799,"153":9800,"])ĊĊ":9801,"owl":9802,"ifies":9803,"Ġ$('.":9804,"ĠContext":9805,"ĠToast":9806,".Key":9807,"Ġofficers":9808,"/n":9809,"sn":9810,"undefined":9811,".items":9812,"utow":9813,"amage":9814,"Ġaccounts":9815,"ookie":9816,"Section":9817,"icians":9818,"Ġadvis":9819,"(is":9820,"[:,":9821,"ĠFrance":9822,"Func":9823,"icious":9824,"Ġtok":9825,"Channel":9826,"ĠAD":9827,"_NUM":9828,"Ġtimeout":9829,"lemma":9830,"reme":9831,"uj":9832,".Al":9833,"uclear":9834,"(os":9835,"(\"<":9836,"[Ċ":9837,"fetch":9838,"Ġbal":9839,"Ġguid":9840,"-align":9841,"ĠWrite":9842,"ĠOnce":9843,"utowired":9844,"ODULE":9845,"Ġpitch":9846,"CF":9847,"bytes":9848,"ĠCommission":9849,"Ġincred":9850,"PER":9851,"_response":9852,"ĠLos":9853,"parser":9854,"Ġassume":9855,".Request":9856,"ĠToken":9857,"_position":9858,"Ġnom":9859,"-term":9860,"Ġremaining":9861,"iostream":9862,"Ġpieces":9863,"apy":9864,"ĠLess":9865,"range":9866,"umbn":9867,"prise":9868,"_option":9869,"230":9870,"Impl":9871,"kwargs":9872,"Ġbusinesses":9873,"Alert":9874,"Ġparties":9875,"ĠContainer":9876,"ĠPrivate":9877,"ĠPlan":9878,"Ġregistered":9879,"Ġjour":9880,"acker":9881,"ÐµÐ½Ð¸":9882,"/>":9883,"chat":9884,"sect":9885,"Ġcreation":9886,"olutely":9887,"Ġinstant":9888,"Ġdelivery":9889,"icken":9890,"yes":9891,"163":9892,"ĠFranc":9893,"bling":9894,"enda":9895,"[(":9896,"_range":9897,"ĠĠĠĠĠĠĠĠĠĠĠĠĠĠĠĠĠĠĠĠĠĠĠĠĠĠĠĠĠĠĠĠĠĠ":9898,"Ġschedule":9899,"Conn":9900,"Ġthank":9901,"xd":9902,"Ġhook":9903,"Ġdocumentation":9904,"Parameters":9905,"Hello":9906,"vt":9907,"Ġarticles":9908,"Ġwest":9909,"defined":9910,".select":9911,"okens":9912,"ĠVAL":9913,".file":9914,"reset":9915,"Ġmys":9916,"ĠMA":9917,"]),":9918,"Ġcities":9919,"related":9920,"åĽ":9921,"Ġappeared":9922,"Ġwid":9923,".panel":9924,"ĠIns":9925,".entity":9926,"Ġdecre":9927,"ĠLou":9928,"(time":9929,"ĠThank":9930,".createElement":9931,"Ġmentioned":9932,"ounce":9933,"ĠTry":9934,"ĠWall":9935,"/images":9936,"ĠMenu":9937,"'čĊ":9938,"ĠEr":9939,"Ġcritic":9940,"ĠYear":9941,"(param":9942,"Ġflo":9943,"NN":9944,"ooter":9945,"Ġ];Ċ":9946,"ĠAff":9947,"\"github":9948,"rooms":9949,"Ġhyp":9950,"global":9951,"Ġavec":9952,"æľĪ":9953,"Ġcompletion":9954,"Ġcond":9955,"onymous":9956,"(temp":9957,"Ġstars":9958,"Ġrelevant":9959,"Ġcovered":9960,"Ġelim":9961,"_types":9962,"(bool":9963,"Ġtu":9964,"_exists":9965,"Ġsecure":9966,"Ġstored":9967,"]/":9968,"xF":9969,"ĠController":9970,"Ġmigr":9971,"MI":9972,"ĠDen":9973,"Ġannual":9974,"UIL":9975,"-and":9976,"Ġcrime":9977,"bel":9978,"Ġkitchen":9979,"@g":9980,"_ph":9981,"ournament":9982,"ĠSocial":9983,"ĠSpecial":9984,"logger":9985,"Ġtail":9986,"Ġunknown":9987,"ded":9988,"Ġapprec":9989,"(db":9990,"cf":9991,"155":9992,"Ġassign":9993,"-out":9994,"ĠMont":9995,"dp":9996,"widget":9997,"Ġstone":9998,"-primary":9999,".grid":10000,"Results":10001,"azz":10002,"Ġdaughter":10003,"Ġcurr":10004,"175":10005,"Ġlin":10006,"Ġsouth":10007,"forms":10008,"ĠOUT":10009,"lette":10010,"aks":10011,"igure":10012,"ĠEU":10013,"variable":10014,"Ġbrief":10015,"ĠScott":10016,"Ġconference":10017,"anda":10018,"_lock":10019,"oral":10020,"Ġeine":10021,"ORS":10022,"////////////////////////////////////////////////////////////////":10023,"esso":10024,"Ġris":10025,"Ġgender":10026,"estic":10027,"License":10028,"(out":10029,"Ġms":10030,"See":10031,"Ġwilling":10032,"aze":10033,"Ġsports":10034,"Ġyes":10035,"lu":10036,"Ġpurs":10037,"/javascript":10038,"-pro":10039,"navbar":10040,"_product":10041,"/bootstrap":10042,"Ġdriving":10043,"ĠÄ":10044,"Ġpropos":10045,"ultip":10046,"uplic":10047,".email":10048,"Ġapprox":10049,"(cl":10050,"Ġwear":10051,"Ġreply":10052,"asset":10053,"Ġice":10054,"Ġtx":10055,"kr":10056,"ĠGermany":10057,"ĠGeorge":10058,"Ġcb":10059,"ĉerr":10060,"Move":10061,"Ġpoly":10062,"voice":10063,"}\"":10064,"Ġanimal":10065,"Av":10066,"ĠLocation":10067,"Ġnative":10068,"][\"":10069,"<double":10070,"Ġmais":10071,",int":10072,"Ġprepar":10073,"Ġinterval":10074,"plementation":10075,"_ERR":10076,"Ġbug":10077,">\"":10078,"stat":10079,"Ġ},čĊ":10080,"<span":10081,"Ġfaith":10082,"Ġrom":10083,"prev":10084,"ĠElect":10085,"Find":10086,"Ġgod":10087,"otor":10088,"//----------------------------------------------------------------":10089,"original":10090,"Cpp":10091,"ĠSenate":10092,"Ġpositions":10093,"Ġweapons":10094,"Ġcoff":10095,"Ġpurposes":10096,"pol":10097,"Ġimpress":10098,"Ġanimals":10099,".Entity":10100,"(np":10101,"Ġmurder":10102,"Ġ``":10103,"flag":10104,"Ġsolutions":10105,"ĠActive":10106,"Ġbright":10107,".date":10108,"Ġsitu":10109,"ï¼Ī":10110,".ID":10111,"Ġsie":10112,"),čĊ":10113,"akt":10114,"Space":10115,".dat":10116,".indexOf":10117,"han":10118,"azine":10119,"ĠZe":10120,"Ġcrash":10121,"(/":10122,">=":10123,"Ð±":10124,"139":10125,"iva":10126,".AutoSize":10127,"ĠLat":10128,"_ext":10129,"Initialize":10130,".register":10131,"156":10132,"OPY":10133,"Ġreverse":10134,"_dis":10135,"'][":10136,"Ġprompt":10137,"onto":10138,"ĠJournal":10139,"router":10140,"Ġmysqli":10141,"#else":10142,")\"":10143,"-xs":10144,"lets":10145,"phan":10146,".LE":10147,"137":10148,"Will":10149,"Ġafford":10150,"Ġskill":10151,"-toggle":10152,"NC":10153,"Bind":10154,"TS":10155,"Just":10156,"iteral":10157,"YP":10158,"ĉunsigned":10159,"Ġwind":10160,"149":10161,")):Ċ":10162,"Ġwarning":10163,"ĠWater":10164,"Ġdraft":10165,"Ġcm":10166,"Ġsam":10167,"Ġholding":10168,"zip":10169,"ĠScience":10170,"Ġsupposed":10171,"Gen":10172,"Ġdiet":10173,"<h":10174,"ĠPass":10175,"vi":10176,"Ġhusband":10177,"ï¿½ï¿½":10178,"note":10179,"ĠAbout":10180,"ĠInstitute":10181,"Ġclimate":10182,".Format":10183,"Ġnut":10184,"ested":10185,"Ġapparent":10186,"Ġholds":10187,"fi":10188,"news":10189,"CM":10190,"video":10191,"':'":10192,"DITION":10193,"ping":10194,"Ġsenior":10195,"wa":10196,"-->Ċ":10197,"_default":10198,"ĠDatabase":10199,"rep":10200,"ESS":10201,"nergy":10202,".Find":10203,"_mask":10204,"Ġrise":10205,"Ġkernel":10206,"::$":10207,".Q":10208,"Ġoffering":10209,"decl":10210,"ĠCS":10211,"Ġlisted":10212,"Ġmostly":10213,"enger":10214,"Ġblocks":10215,"olo":10216,"Ġgoverning":10217,"\\F":10218,"Ġconcent":10219,".getText":10220,"Ġmb":10221,"Ġoccurred":10222,"Ġchanging":10223,"Scene":10224,"_CODE":10225,"Beh":10226,"\"The":10227,"Ġtile":10228,"ĠAssociation":10229,"ĉP":10230,"alty":10231,"_ad":10232,"odies":10233,"iated":10234,"Ġprepared":10235,"possible":10236,"Ġmort":10237,"TEST":10238,"142":10239,"Ġignore":10240,"Ġcalc":10241,"Ġrs":10242,"ĠassertEquals":10243,"Ġsz":10244,"ĠTHIS":10245,".\"Ċ":10246,"Ġcanvas":10247,"java":10248,"Ġdut":10249,"VALID":10250,".sql":10251,".input":10252,"Ġaux":10253,"Sup":10254,"Ġartist":10255,"Vec":10256,"_TIME":10257,".stringify":10258,"etween":10259,"ĠCategory":10260,"Ġ[-":10261,"ĠDevExpress":10262,"ĠJul":10263,"Ġring":10264,".ed":10265,"YY":10266,"Let":10267,"TextField":10268,"Ġflat":10269,"_print":10270,"ĠOTHER":10271,"adian":10272,"Ġchecked":10273,"ele":10274,"Align":10275,"standing":10276,"Ġ[],":10277,"Ġlab":10278,"ucky":10279,"ĠChristmas":10280,"(image":10281,".module":10282,"Ġlots":10283,"Ġslightly":10284,"(final":10285,"erge":10286,"è¿":10287,"147":10288,"ĠPolice":10289,"143":10290,"ĠRight":10291,"Ġaward":10292,"ĠOS":10293,"Ġ{}ĊĊ":10294,"Ġptr":10295,"oves":10296,"icated":10297,"ÐµÐ¼":10298,"Ġmanage":10299,"oliday":10300,"Amount":10301,"oolStrip":10302,"tbody":10303,"Nav":10304,"wrap":10305,"BB":10306,"Ġwatching":10307,"arios":10308,"Ġoptional":10309,"_K":10310,"ĠLicensed":10311,".Map":10312,"Timer":10313,"ĠAP":10314,"ĠRev":10315,"(o":10316,",c":10317,"umin":10318,"etailed":10319,"ĠHy":10320,"Ġblank":10321,"agger":10322,"ĠSelf":10323,"()[":10324,".make":10325,"earn":10326,"channel":10327,"<pre":10328,"blem":10329,"_password":10330,"_sp":10331,"icing":10332,"ez":10333,"Ġtheory":10334,"ĠTer":10335,"184":10336,",n":10337,"logo":10338,"ĠHTTP":10339,"()))":10340,".handle":10341,">;Ċ":10342,"World":10343,"Ġpython":10344,"Ġlif":10345,"Ġtrav":10346,"Ġconven":10347,"company":10348,"ĠClub":10349,"138":10350,"Ver":10351,"Btn":10352,"Ġzone":10353,"products":10354,"ĠEduc":10355,"Ġverify":10356,"ĠMil":10357,"ono":10358,"]);ĊĊ":10359,"ENCE":10360,"Ġpacket":10361,"Ġcer":10362,"Ġenumer":10363,"Ġpars":10364,"formed":10365,"Ġoccup":10366,"tre":10367,"Ġexercise":10368,"Day":10369,"_sum":10370,"Ġasking":10371,"aption":10372,"Ġorders":10373,"Ġspending":10374,"ĠERR":10375,".Dis":10376,"ĠUtil":10377,"âĢľI":10378,"\\'":10379,"?)":10380,"/>Ċ":10381,"Ġemot":10382,"Ġinfluence":10383,"ĠAfrica":10384,"atters":10385,"Ùħ":10386,".session":10387,"Ġchief":10388,"ĉĉĉĉĉĉĉĉĉĉĉ":10389,"Ġtom":10390,"cluded":10391,"serial":10392,"_handler":10393,".Type":10394,"aped":10395,"Ġpolicies":10396,"-ex":10397,"-tr":10398,"blank":10399,"merce":10400,"Ġcoverage":10401,"Ġrc":10402,"_matrix":10403,"_box":10404,"Ġcharges":10405,"ĠBoston":10406,"Pe":10407,"Ġcircum":10408,"Ġfilled":10409,"148":10410,"Ġnorth":10411,"ictureBox":10412,"ĉres":10413,"è®":10414,"Ġtermin":10415,"Ġ[âĢ¦":10416,"IRECT":10417,"Ġber":10418,"Ġ\"../../":10419,"retch":10420,".code":10421,"_col":10422,"ĠGovernment":10423,"Ġargv":10424,"ĠLord":10425,"asi":10426,"Exec":10427,"ĉlet":10428,"vertis":10429,"Ġdiscussion":10430,"enance":10431,"outube":10432,"typeof":10433,"Ġserved":10434,"ĠPut":10435,"ĉx":10436,"Ġsweet":10437,"Before":10438,"ategy":10439,".of":10440,"ĠMaterial":10441,"Sort":10442,"ONT":10443,"igital":10444,"Why":10445,"Ġsust":10446,"Ġç":10447,"abet":10448,"Ġsegment":10449,"Ġ[],Ċ":10450,"ĠMuslim":10451,"ĠfindViewById":10452,"cut":10453,"_TEXT":10454,"ĠMary":10455,"Ġloved":10456,"Ġlie":10457,"ĠJO":10458,"Ġisset":10459,"month":10460,"Ġprime":10461,"ti":10462,"ĠCarol":10463,"Use":10464,"146":10465,"ĠPop":10466,"ĠSave":10467,"Interval":10468,"execute":10469,"dy":10470,"ĠIran":10471,"_cont":10472,"ĉT":10473,"Ġphase":10474,"checkbox":10475,"week":10476,"Ġhide":10477,"Ġtil":10478,"Ġju":10479,"Custom":10480,"burg":10481,"/M":10482,"TON":10483,"Ġquant":10484,"Ġrub":10485,"ixels":10486,"Ġinstalled":10487,"Ġdump":10488,"Ġproperly":10489,"(List":10490,"Ġdecide":10491,"apply":10492,"Has":10493,"Ġkeeping":10494,"Ġcitizens":10495,"Ġjoint":10496,"pool":10497,"Socket":10498,"_op":10499,"Ġweapon":10500,"gnore":10501,"ĠExec":10502,"otten":10503,"ĠMS":10504,"Ġ(-":10505,"ĠReview":10506,"Ġexamples":10507,"Ġtight":10508,"!(":10509,"DP":10510,"ĠMessageBox":10511,"Ġphotograph":10512,"164":10513,"URI":10514,"Ã©t":10515,"low":10516,"ĠGrand":10517,".persistence":10518,"Ġmaintain":10519,"Ġnums":10520,"Ġzip":10521,"ials":10522,"ĠGets":10523,"peg":10524,"ĠBuffer":10525,"~~~~":10526,"rastructure":10527,"ĠPL":10528,"uen":10529,"obby":10530,"sizeof":10531,"Ġpic":10532,"Ġseed":10533,"Ġexperienced":10534,"Ġodd":10535,"Ġkick":10536,"Ġprocedure":10537,"avigator":10538,"-on":10539,",j":10540,"ĠAlthough":10541,"ĠuserId":10542,"accept":10543,"Blue":10544,"IColor":10545,"layer":10546,"available":10547,"Ġends":10548,".table":10549,"Ġdataset":10550,"bus":10551,"Ġexplain":10552,"(pro":10553,"ĠCommittee":10554,"Ġnoted":10555,"]:Ċ":10556,"Dim":10557,"stdio":10558,"154":10559,".\",Ċ":10560,"_source":10561,"181":10562,"ĠWeek":10563,"ĠEdge":10564,"Ġoperating":10565,"Ġeste":10566,"ipl":10567,"330":10568,"agination":10569,"Ġproceed":10570,"Ġanimation":10571,".Models":10572,"ĠWatch":10573,"iat":10574,"Ġoppon":10575,"/A":10576,"Report":10577,"Ġsounds":10578,"_buf":10579,"IELD":10580,"Ġbund":10581,"ĉget":10582,".pr":10583,"(tmp":10584,"Ġkid":10585,">ĊĊĊ":10586,"Ġyang":10587,"NotFound":10588,"ÑĨ":10589,"math":10590,"@gmail":10591,"ĠLIMIT":10592,"redients":10593,"Ġvent":10594,"avigate":10595,"Look":10596,"Ġreligious":10597,"Ġrand":10598,"rio":10599,"(GL":10600,"_ip":10601,"uan":10602,"iciency":10603,"ĠChange":10604,">čĊčĊ":10605,"ĠEntity":10606,"Ġrencontre":10607,"ĠRet":10608,"plan":10609,"Ã©n":10610,"BOOL":10611,"uries":10612,"train":10613,"Definition":10614,"============":10615,"zz":10616,"450":10617,"Animation":10618,"ĠOK":10619,"_menu":10620,".bl":10621,"_score":10622,"Ġacad":10623,"(System":10624,"Ġrefresh":10625,"'=>$":10626,".Graphics":10627,"amento":10628,"pid":10629,"tc":10630,"Ġtips":10631,"Ġhomes":10632,"Ġfuel":10633,"âĸ":10634,"_helper":10635,"ĠĠčĊ":10636,"ĠRoom":10637,".Close":10638,"_attr":10639,"ĠMount":10640,"ĠEv":10641,"arser":10642,"_top":10643,"eah":10644,"ĠDelete":10645,"ãĢį":10646,"uke":10647,"Ġusage":10648,"aria":10649,"_dev":10650,"Ġtexture":10651,"Ġconversation":10652,"eper":10653,"Bean":10654,"done":10655,"nonatomic":10656,"ĠSecond":10657,"Ġshooting":10658,"_pre":10659,"Components":10660,"Ġ]ĊĊ":10661,"__,":10662,"stitution":10663,".Char":10664,">();ĊĊ":10665,"Ġpresented":10666,"Ġwa":10667,"oker":10668,"-ĊĊ":10669,"iner":10670,"Ġbecoming":10671,"Ġincident":10672,"Att":10673,"162":10674,"Ġrevealed":10675,"forc":10676,"Ġboot":10677,".page":10678,"Enumerator":10679,"165":10680,"_->":10681,"Photo":10682,"Ġspring":10683,".\",":10684,"ĠDictionary":10685,"BJECT":10686,"Ġlocations":10687,"Ġsamples":10688,"InputStream":10689,"ĠBrown":10690,"Ġstats":10691,"quality":10692,"Ñħ":10693,"-dis":10694,"Ġhelping":10695,"Ġped":10696,"224":10697,"(se":10698,"ĠWho":10699,"alian":10700,"internal":10701,"Ġft":10702,">().":10703,"->{":10704,"Ġmine":10705,"Ġsector":10706,"Ġgro":10707,"Ġopportunities":10708,"ĠÃ¼":10709,"Ġmp":10710,"Ġalleged":10711,"Ġdoubt":10712,"Mouse":10713,"About":10714,"_part":10715,"Ġchair":10716,"Ġstopped":10717,"161":10718,"loop":10719,"entities":10720,"Ġapps":10721,"ansion":10722,"Ġmental":10723,"ĠĠĠĠĠĠĠĠĠĠĠĠĠĠĠĠĠĠĠĠĠĠĠĠĠĠĠĠĠĠĠĠĠĠĠĠĠĠĠĠĠ":10724,"FR":10725,"Ġdefend":10726,"care":10727,"Ġideal":10728,"/api":10729,"urface":10730,"011":10731,"Ġele":10732,"ulator":10733,"ĠRights":10734,"anguages":10735,"Ġfunds":10736,"Ġadapt":10737,"Attributes":10738,"Ġdeploy":10739,"opts":10740,"Ġvalidation":10741,"Ġconcerns":10742,"uce":10743,".num":10744,"ulture":10745,"ila":10746,"Ġcup":10747,"Ġpure":10748,".Fore":10749,"183":10750,"ĠHashMap":10751,".valueOf":10752,"asm":10753,"MO":10754,"Ġcs":10755,"Ġstores":10756,"Ġ************************************************************************":10757,"Ġcommunication":10758,"mem":10759,".EventHandler":10760,".Status":10761,"_right":10762,".setOn":10763,"Sheet":10764,"Ġidentify":10765,"enerated":10766,"ordered":10767,"Ġ\"[":10768,"Ġswe":10769,"Condition":10770,"ĠAccording":10771,"Ġprepare":10772,"Ġrob":10773,"Pool":10774,"Ġsport":10775,"rv":10776,"ĠRouter":10777,"Ġalternative":10778,"([]":10779,"ĠChicago":10780,"ipher":10781,"ische":10782,"ĠDirector":10783,"kl":10784,"ĠWil":10785,"keys":10786,"Ġmysql":10787,"Ġwelcome":10788,"king":10789,"ĠManager":10790,"Ġcaught":10791,")}Ċ":10792,"Score":10793,"_PR":10794,"Ġsurvey":10795,"hab":10796,"Headers":10797,"ADER":10798,"Ġdecor":10799,"Ġturns":10800,"Ġradius":10801,"errupt":10802,"Cor":10803,"Ġmel":10804,"Ġintr":10805,"(q":10806,"ĠAC":10807,"amos":10808,"MAX":10809,"ĠGrid":10810,"ĠJesus":10811,"ĠĠĠĠĠĠĠĠĠĠĠĠĠĠĠĠĠĠĠĠĠĠĠĠĠĠĠĠĠĠĠĠĠĠĠĠ":10812,".DE":10813,"Ġts":10814,"Ġlinked":10815,"free":10816,"ĠQt":10817,"Ġ/**čĊ":10818,"Ġfaster":10819,"ctr":10820,"_J":10821,"DT":10822,".Check":10823,"Ġcombination":10824,"Ġintended":10825,"-the":10826,"-type":10827,"182":10828,"ectors":10829,"ami":10830,"uting":10831,"Ġuma":10832,"XML":10833,"UCT":10834,"Ap":10835,"ĠRandom":10836,"Ġran":10837,".sort":10838,"Ġsorted":10839,".Un":10840,"401":10841,"_PER":10842,"itory":10843,"Ġpriority":10844,"ĠGal":10845,"ĠOld":10846,"hot":10847,"ĠDisplay":10848,"(sub":10849,"_TH":10850,"_Y":10851,"ĠCare":10852,"loading":10853,"Kind":10854,"_handle":10855,",,":10856,"rase":10857,"_replace":10858,".addEventListener":10859,"ĠRT":10860,"172":10861,"Ġentered":10862,"gers":10863,"Ġich":10864,"(start":10865,"205":10866,"/app":10867,"Ġbrother":10868,"Memory":10869,"Outlet":10870,"Ġutf":10871,"prec":10872,"Ġnavigation":10873,"ORK":10874,"Ġdst":10875,"Detail":10876,"Ġaudience":10877,"Ġdur":10878,"Ġcluster":10879,"unched":10880,"Ġ],":10881,"Ġcomfortable":10882,".values":10883,"ĠTotal":10884,"Ġsnap":10885,"Ġstandards":10886,"Ġperformed":10887,"hand":10888,"(\"@":10889,"åŃ":10890,"Ġphil":10891,"ibr":10892,"trim":10893,"Ġforget":10894,"157":10895,"Ġdoctor":10896,".TextBox":10897,"377":10898,"icons":10899,",s":10900,"ĠOp":10901,"Sm":10902,"Stop":10903,"ĉList":10904,"ĉu":10905,"Comment":10906,"_VERSION":10907,".Xtra":10908,"Person":10909,"rb":10910,"LOB":10911,"ĠĠĠĠĠĠĠĠĠĠĠĠĠĠĠĠĠĠĠĠĊ":10912,"ĠCentral":10913,"270":10914,"ICK":10915,"raq":10916,"Ġputting":10917,"Ġmd":10918,"ĠLove":10919,"Program":10920,"Border":10921,"oor":10922,"Ġallowing":10923,"after":10924,"Ġentries":10925,"ĠMaybe":10926,"]).":10927,"ĠShort":10928,")\\":10929,".now":10930,"friend":10931,"Ġprefer":10932,"ĠGPIO":10933,"osis":10934,"ĠGameObject":10935,"Ġskip":10936,"Ġcompetition":10937,"_match":10938,"lications":10939,"_CONT":10940,".groupBox":10941,"Ġals":10942,"666":10943,"\"We":10944,"_eq":10945,"lan":10946,"_search":10947,"ĠMusic":10948,"asis":10949,"Ġbind":10950,"ĠIsland":10951,"rum":10952,"(E":10953,"Ġseat":10954,"Video":10955,"Ġack":10956,"reek":10957,"={()":10958,"Ġrating":10959,"Ġrestaurant":10960,"456":10961,"DEX":10962,"(buf":10963,"pping":10964,"uality":10965,"Ġleague":10966,"176":10967,"Ġfocused":10968,"apon":10969,"$data":10970,"CLUD":10971,"CLUDING":10972,"Ġabsolute":10973,"(query":10974,"Ġtells":10975,"Ang":10976,"Ġcommunities":10977,"Ġhonest":10978,"oking":10979,"Ġapart":10980,"arity":10981,"/$":10982,"_module":10983,"ĠEnc":10984,".an":10985,".Config":10986,"Cre":10987,"Ġshock":10988,"ĠArab":10989,"IENT":10990,"/re":10991,"Ġretrie":10992,"ycler":10993,"isa":10994,"ĠOrgan":10995,".graph":10996,"Ġí":10997,"ĠBAS":10998,"Enum":10999,"Ġpossibly":11000,"ÑĢÐ°Ð":11001,"ĠJapanese":11002,"Ġcraft":11003,"ĠPlace":11004,"Ġtalent":11005,"Ġfunding":11006,"Ġconfirmed":11007,"Ġcycle":11008,"/x":11009,"GE":11010,"Ġhearing":11011,"Ġplants":11012,"Ġmouth":11013,"pages":11014,"oria":11015,"ĠRemove":11016,"_total":11017,"Ġod":11018,"ollapse":11019,"door":11020,"Ġbought":11021,"Ġaddr":11022,"ARCH":11023,"_dim":11024,"dden":11025,"Ġdecades":11026,"REQUEST":11027,"Ġversions":11028,"fire":11029,"006":11030,"Ġmoves":11031,"fb":11032,"Ġcoffee":11033,".connect":11034,"ĠRow":11035,"Ġschema":11036,"Scope":11037,"-Type":11038,"Ġfighting":11039,"Ġretail":11040,"Ġmodified":11041,"TF":11042,"Files":11043,"nie":11044,"_command":11045,"stone":11046,"ĠÑĤ":11047,"_thread":11048,"Ġbond":11049,"ĠDevelopment":11050,"Ġpt":11051,"FORM":11052,"plet":11053,"Ġidentified":11054,"cpp":11055,"206":11056,"225":11057,"Ġcoding":11058,"oked":11059,"ĠMaster":11060,"IDTH":11061,"Ġresidents":11062,"redit":11063,"ĠPhoto":11064,"=-":11065,"unte":11066,"ateur":11067,"159":11068,"_STATE":11069,"ĠSing":11070,"Ġsheet":11071,".val":11072,"orse":11073,"Ġhers":11074,"Ġdetermined":11075,"Common":11076,"Ġwed":11077,"_queue":11078,"PH":11079,"ĠAtl":11080,"cred":11081,"/LICENSE":11082,"Ġmes":11083,"Ġadvanced":11084,".java":11085,".Sh":11086,"Go":11087,"kill":11088,"fp":11089,"_settings":11090,"Ġpal":11091,"Ġtruck":11092,"Ġcombined":11093,"Ġ\"${":11094,"ĠCorpor":11095,"Ġjoined":11096,"ĠJose":11097,"ĠCup":11098,"uns":11099,"estival":11100,"levision":11101,"Ġbroken":11102,"Ġmarriage":11103,"ĠWestern":11104,"Ġrepresents":11105,"ĠTitle":11106,"Ġss":11107,".Ass":11108,"ongoose":11109,"iento":11110,"<>();Ċ":11111,"Ġabsolutely":11112,"Ġsmooth":11113,"TERN":11114,"ĠUnless":11115,"Word":11116,"Ġmerge":11117,"igan":11118,"ĠVol":11119,"Ġnn":11120,".getId":11121,"ĠÐ·":11122,"171":11123,"Ġsexy":11124,"Ġseeking":11125,"Single":11126,".this":11127,"179":11128,"Ġkom":11129,"bound":11130,";\"":11131,"ĠfontSize":11132,"_df":11133,"Ġinjury":11134,"(H":11135,"Ġissued":11136,"_END":11137,":self":11138,"020":11139,"Ġpatch":11140,"Ġleaves":11141,"Ġadopt":11142,"FileName":11143,"ãĢĲ":11144,"Ġexecutive":11145,"ĠByte":11146,"]))Ċ":11147,"Ġnu":11148,"outing":11149,"cluding":11150,"-R":11151,".options":11152,"Ġsubstant":11153,"avax":11154,"ĠBUT":11155,"Ġtechnical":11156,"Ġtwice":11157,"ĠmÃ¡s":11158,"Ġunivers":11159,"yr":11160,"Ġdrag":11161,"ĠDC":11162,"Ġsed":11163,"Ġbot":11164,"ĠPal":11165,"ĠHall":11166,"forcement":11167,"Ġauch":11168,".mod":11169,"notation":11170,"_files":11171,".line":11172,"_flag":11173,"[name":11174,"Ġresolution":11175,"Ġbott":11176,"(\"[":11177,"ende":11178,"(arr":11179,"Free":11180,"(@\"":11181,"ĠDistrict":11182,"PEC":11183,":-":11184,"Picker":11185,"ĠJo":11186,"ĠĠĠĠĠĊ":11187,"ĠRiver":11188,"_rows":11189,"Ġhelpful":11190,"Ġmassive":11191,"---Ċ":11192,"Ġmeasures":11193,"007":11194,"ĠRuntime":11195,"Ġworry":11196,"ĠSpec":11197,"ĉD":11198,"ãĢĳ":11199,"Ġ){Ċ":11200,"Ġworse":11201,"(filename":11202,"Ġlay":11203,"Ġmagic":11204,"ĠTheir":11205,"oul":11206,"stroy":11207,"ĠWhere":11208,"280":11209,"Ġsudden":11210,"Ġdefe":11211,"Ġbinding":11212,"Ġflight":11213,"ĠOnInit":11214,"ĠWomen":11215,"ĠPolicy":11216,"Ġdrugs":11217,"ishing":11218,"('../":11219,"ĠMel":11220,"peat":11221,"tor":11222,"Ġproposed":11223,"Ġstated":11224,"_RES":11225,"Ġeast":11226,"212":11227,"ĠCONDITION":11228,"_desc":11229,"Ġwinning":11230,"folio":11231,"Mapper":11232,"ĠPan":11233,"ĠAnge":11234,".servlet":11235,"Ġcopies":11236,"LM":11237,"Ġvm":11238,"åį":11239,"Ġdictionary":11240,"Seg":11241,"177":11242,"elines":11243,"ĠSend":11244,"Ġiron":11245,"ĠFort":11246,"166":11247,".domain":11248,"Ġdebate":11249,"NotNull":11250,"eq":11251,"acher":11252,"lf":11253,"ĉfmt":11254,"Ġlawy":11255,"178":11256,"ÄŁ":11257,"ĠMen":11258,"Ġtrim":11259,"(NULL":11260,"Ġ!!":11261,"Ġpad":11262,"Ġfollows":11263,"\"][\"":11264,"requ":11265,"ĠEp":11266,".github":11267,"(img":11268,"eto":11269,"('\\":11270,"Services":11271,"umbnail":11272,"_main":11273,"pleted":11274,"fortunately":11275,"Ġwindows":11276,"Ġplane":11277,"ĠConnection":11278,".local":11279,"uard":11280,"}\\":11281,"==\"":11282,"andon":11283,"ĠRoy":11284,"west":11285,"158":11286,"iginal":11287,"emies":11288,"itz":11289,"'):Ċ":11290,"ĠPeter":11291,"Ġtough":11292,"Ġreduced":11293,"Ġcalculate":11294,"Ġrapid":11295,"customer":11296,"Ġefficient":11297,"Ġmedium":11298,"Ġfell":11299,".ref":11300,"ĠCas":11301,"Ġfeedback":11302,"Speed":11303,"(output":11304,"aje":11305,"Ġcategories":11306,"Ġfee":11307,"};":11308,"Ġdeleted":11309,"reh":11310,"Ġproof":11311,"Desc":11312,"Build":11313,"Ġsides":11314,".ArrayList":11315,"-%":11316,"ĠĠĠĠĠĠĠĠĠĠĠĠĠĠĠĠĠĠĠĠĠĠĠĠĠĠĠĠĠĠĠĠĠĠĠĠĠĠ":11317,"Ø±":11318,".match":11319,"Ð»Ð¸":11320,"Ġfeels":11321,"Ġachieve":11322,"Ġclim":11323,"_ON":11324,"ĠCD":11325,"Ġteacher":11326,"_current":11327,"bn":11328,"_PL":11329,"isting":11330,"Enable":11331,"GEN":11332,"Ġtv":11333,"Ġsock":11334,"Ġplays":11335,"Ġdiscount":11336,"ĠKE":11337,"ĠDebug":11338,"Fore":11339,"ĠIraq":11340,"Ġappearance":11341,"Mon":11342,"Ġstyled":11343,"ĠHuman":11344,"iot":11345,"ĠHistory":11346,"Ġsac":11347,"ĠCollection":11348,"Ġrecommended":11349,".Selected":11350,"Ġorganizations":11351,"Ġdiscovered":11352,"cohol":11353,"adas":11354,"ĠThomas":11355,"May":11356,"Ġconserv":11357,"Ġdomin":11358,"ĠFollow":11359,"ĠSection":11360,"ĠThanks":11361,"Username":11362,"Ġrecipe":11363,"Ġwonderful":11364,".sleep":11365,"_if":11366,"ĉĊĉĊ":11367,"orno":11368,"Ġru":11369,"_target":11370,".\"\"":11371,"à¦":11372,"EventArgs":11373,"Ġinputs":11374,"Ġfif":11375,"Ġvision":11376,"cy":11377,"ĠSeries":11378,")(((":11379,"Ġtrading":11380,"Ġmarker":11381,"Begin":11382,"Ġtypically":11383,"Ġcauses":11384,"dropdown":11385,"_DEBUG":11386,"260":11387,"Ġdetect":11388,"country":11389,"!\");Ċ":11390,"ĉR":11391,"appy":11392,"Ġcref":11393,"('<":11394,"\"=>":11395,"ĠLE":11396,"reader":11397,"Ġadministr":11398,"Ãµ":11399,"ucket":11400,"Ġfashion":11401,".char":11402,"izar":11403,"Ġdisable":11404,"Ġsuc":11405,"ĠLive":11406,"issue":11407,"Ġmetadata":11408,"flags":11409,"ĠðŁ":11410,"Ġcommitted":11411,"Ġva":11412,"Ġrough":11413,"Ġ'''Ċ":11414,"Ġhighlight":11415,"_vars":11416,"VO":11417,"Ġencoding":11418,"-Z":11419,"_sign":11420,"$(\"#":11421,"Ġrain":11422,"reatest":11423,"ĠEND":11424,"Selection":11425,"Ġcandidates":11426,"Ġsav":11427,".Empty":11428,"Ġdecisions":11429,"Ġcollabor":11430,"ridge":11431,"feed":11432,"ression":11433,"Ġpersons":11434,"VM":11435,"008":11436,"ega":11437,"_BIT":11438,"According":11439,"acked":11440,"Ġdollars":11441,"_loss":11442,"ĠCost":11443,"}\"Ċ":11444,"Notification":11445,"Ġprostit":11446,"Ġauthority":11447,".rec":11448,"Ġspokes":11449,"ĠToday":11450,"istant":11451,"ĠHead":11452,"âĢĿ.":11453,"ertainment":11454,"cean":11455,"culate":11456,"Ġven":11457,"However":11458,"_arr":11459,"Ġtokens":11460,"Graph":11461,"ĠJud":11462,"ĠVirgin":11463,"ĠSerial":11464,"unning":11465,"Mutable":11466,"agers":11467,".csv":11468,"Ġdeveloping":11469,"Ġinstructions":11470,"Ġpromise":11471,"Ġrequested":11472,"_encode":11473,"/\"":11474,"ĠIcon":11475,"uilt":11476,"-day":11477,"Ġintelligence":11478,".IS":11479,"ĠObservable":11480,"ĠHard":11481,"Bool":11482,"211":11483,"idential":11484,".Anchor":11485,"Ġselling":11486,"CI":11487,"AGES":11488,"tle":11489,"bur":11490,"UFFER":11491,"RY":11492,"Ġbigger":11493,"Ġrat":11494,"Ġfamous":11495,"Ġtypename":11496,"Ġexplained":11497,"}}Ċ":11498,"Ġnuclear":11499,"-N":11500,"Ġcrisis":11501,"ĠEnter":11502,"Ġanswers":11503,"/${":11504,"/pl":11505,"Ġsequ":11506,"_next":11507,"mask":11508,"Ġstanding":11509,"Ġplenty":11510,"ĠCross":11511,"ĉret":11512,"dro":11513,"ĠCast":11514,"167":11515,"=true":11516,"ĠChris":11517,"icio":11518,"ĠMike":11519,"Decimal":11520,"addComponent":11521,"Len":11522,"Ġcock":11523,"Ġ#{":11524,"URN":11525,"<tr":11526,"Ġauthorities":11527,"Resources":11528,"-H":11529,"Bottom":11530,"012":11531,"_qu":11532,"puter":11533,"esterday":11534,"Dispatch":11535,"since":11536,"Ġfamiliar":11537,",i":11538,"VC":11539,"Ġment":11540,",C":11541,"Ġfreedom":11542,"Ġroutes":11543,"ĠBuy":11544,"Ġcommands":11545,"Ġmesh":11546,"/C":11547,"ĠSettings":11548,"-style":11549,"Ġwitness":11550,"Ġcle":11551,"Ġunion":11552,"efault":11553,"aret":11554,"Ġthoughts":11555,"Ġ----":11556,"_process":11557,"_us":11558,"ingly":11559,"UES":11560,"Touch":11561,"ĠÐ¼":11562,"_open":11563,"ĠVec":11564,"Ġreward":11565,".Click":11566,"/:":11567,"Ġnie":11568,"Changes":11569,"Month":11570,"ï¼Ł":11571,"Ġexecution":11572,"Ġbeach":11573,"(Integer":11574,"ĉa":11575,"/'":11576,".FontStyle":11577,"Ġabort":11578,"ĠSingle":11579,"(isset":11580,"Ġdp":11581,"Ġ}}</":11582,"ĠMa":11583,"214":11584,".Rows":11585,"ĠPet":11586,"%)":11587,"rand":11588,"éĢ":11589,"Rule":11590,"Ġhel":11591,"021":11592,"RITE":11593,"Ġquiet":11594,"Ġratio":11595,"ĠCONDITIONS":11596,"osoph":11597,"ĠIL":11598,"Ġadvent":11599,"cap":11600,";</":11601,"ĠUSB":11602,"Driver":11603,"Ġours":11604,"ĠJohnson":11605,".K":11606,"_delete":11607,".q":11608,"ĉstr":11609,"/common":11610,"ĉstring":11611,"ĠPDF":11612,"acts":11613,".Action":11614,"ĠQuery":11615,".response":11616,"ĠGirl":11617,"Ġprocesses":11618,"<Integer":11619,"imo":11620,"Ġadds":11621,"Ġentirely":11622,"Ġwash":11623,"/************************************************************************":11624,"Ġanimated":11625,"Ġprofit":11626,"encing":11627,"/S":11628,"ĠSym":11629,"Ġmanual":11630,"Download":11631,"Ġ(!$":11632,"Ġmotion":11633,"webpack":11634,"-bottom":11635,"Ġgratuit":11636,"PG":11637,"(:,":11638,"Ġera":11639,"Ġho":11640,"ĠJim":11641,"quir":11642,"ĠBASIS":11643,"Ã¡n":11644,"DER":11645,"Ġexpensive":11646,"_co":11647,"Bounds":11648,"Well":11649,"ĠDemocratic":11650,"ĠâĨĴ":11651,".Rem":11652,"_SY":11653,"names":11654,"ĠVi":11655,"Ġisinstance":11656,"\\\">":11657,"Ġ*=":11658,"ĠPS":11659,"Ġdangerous":11660,"[p":11661,"OME":11662,"Other":11663,"ĠStringBuilder":11664,"Points":11665,"heading":11666,"Ġcurrency":11667,"Ġpercentage":11668,"_API":11669,"Ġclassic":11670,"thead":11671,"ĠMO":11672,"FE":11673,"Idx":11674,"await":11675,"ĠÃ¨":11676,"Ġaccident":11677,"Ġvariant":11678,"Ġmyst":11679,"ĠLand":11680,"ĠBre":11681,"Ġharm":11682,"ĠAcc":11683,"Ġcharged":11684,"iones":11685,"Visibility":11686,"arry":11687,"ĠLanguage":11688,"Ġwalking":11689,"\".ĊĊ":11690,"ifer":11691,"Ġleadership":11692,".From":11693,"ynam":11694,"Ġtimestamp":11695,"ipt":11696,"ĠHas":11697,"REFER":11698,"ĠIts":11699,"Ġlistener":11700,"UTE":11701,"213":11702,"_description":11703,"Ġexperiences":11704,"Ġcreates":11705,"RS":11706,"cart":11707,"black":11708,"Ġchoices":11709,"war":11710,"750":11711,"Ġ'''":11712,"Ġordered":11713,"Ġevening":11714,"Ġpil":11715,"Ġtun":11716,"ĠBad":11717,"(app":11718,"random":11719,"Ġexplicit":11720,"Ġarrived":11721,"Ġfly":11722,"Ġeconom":11723,"-mail":11724,"Ġlists":11725,"Ġarchitect":11726,"234":11727,"ĠPay":11728,"Ġds":11729,"ĠSol":11730,"Ġvehicles":11731,"Hz":11732,"-com":11733,"Ġking":11734,"_equal":11735,"ĠHelp":11736,"Ġabuse":11737,"480":11738,"169":11739,"--;Ċ":11740,"Ġextr":11741,"Ġchemical":11742,"ä¿":11743,"Ġorient":11744,"Ġbreath":11745,"ĠSpace":11746,"(element":11747,"wait":11748,"DED":11749,"igma":11750,"Ġentr":11751,"Ġsob":11752,"-name":11753,"Ġaffected":11754,"ika":11755,"Ġcoal":11756,"_work":11757,"Ġhundreds":11758,"Ġpolitics":11759,"subject":11760,"Ġconsumer":11761,"ANGE":11762,"Ġrepeated":11763,"Send":11764,"Ġ#[":11765,"Ġprotocol":11766,"Ġleads":11767,"useum":11768,"Every":11769,"808":11770,"174":11771,"Import":11772,"(count":11773,"Ġchallenges":11774,"Ġnovel":11775,"Ġdepart":11776,"bits":11777,".Current":11778,"Ġ`${":11779,"oting":11780,"(\\":11781,"Ġcreative":11782,"Ġbuff":11783,"Ġintroduced":11784,"usic":11785,"modules":11786,"Are":11787,"-doc":11788,"language":11789,"_cache":11790,"Ġtod":11791,"?></":11792,"omething":11793,"Ġhun":11794,"åº":11795,"aters":11796,"Intent":11797,"Ġimplemented":11798,"ĠCase":11799,"Children":11800,"Ġnotification":11801,"Renderer":11802,"Wrapper":11803,"Objects":11804,"tl":11805,".Contains":11806,"Plugin":11807,".row":11808,"Ġforg":11809,"Ġpermit":11810,"Ġtargets":11811,"ĠIF":11812,"Ġtip":11813,"sex":11814,"Ġsupports":11815,"Ġfold":11816,"photo":11817,"},čĊ":11818,"Ġgoogle":11819,"$('#":11820,"Ġsharing":11821,"Ġgoods":11822,"vs":11823,"ĠDan":11824,"Rate":11825,"ĠMartin":11826,"Ġmanner":11827,"lie":11828,".The":11829,"Internal":11830,"ĠCONTR":11831,"Mock":11832,"RIGHT":11833,"Ġ'{":11834,"Ġcontrols":11835,"Mat":11836,"Ġmand":11837,"Ġextended":11838,"Ok":11839,"Ġembed":11840,"Ġplanet":11841,"ĠNon":11842,"-ch":11843,")\",":11844,"epar":11845,"Ġbelieved":11846,"ĠEnvironment":11847,"ĠFriend":11848,"-res":11849,"Ġhandling":11850,"nic":11851,"-level":11852,"scri":11853,"Xml":11854,"BE":11855,"ungen":11856,"Ġalter":11857,"[idx":11858,"Pop":11859,"cam":11860,"Ġ(((":11861,"Ġshipping":11862,"Ġbattery":11863,"iddleware":11864,"MC":11865,"Ġimpl":11866,"otation":11867,"ĠLab":11868,"<form":11869,"ĉname":11870,"ĠGames":11871,"ray":11872,"Extra":11873,"Two":11874,"(player":11875,"ĠLes":11876,"Â°":11877,"Ġcharset":11878,"Ġjourney":11879,"eting":11880,"æĺ":11881,"âĶ":11882,"çĶ¨":11883,"Ġdin":11884,"Ġperman":11885,"Ġsolve":11886,"Ġlaunched":11887,"Ġnine":11888,"Ġsending":11889,"Ġtelling":11890,".password":11891,"ĠMatrix":11892,"eric":11893,"Ġgrab":11894,".u":11895,"ĠLibrary":11896,"Ġdebt":11897,"INK":11898,".findViewById":11899,"Ġfrequency":11900,".ad":11901,"_TEST":11902,"Ġnegot":11903,"ĠAfrican":11904,"sender":11905,"Å¡":11906,"Global":11907,"173":11908,"Ġexperts":11909,"++)čĊ":11910,"Ġdepending":11911,"gray":11912,"Ġjudge":11913,"Ġsentence":11914,"losure":11915,"Ac":11916,"Ġtrace":11917,"Edge":11918,"Ġfriendly":11919,"Ġconcerned":11920,"blog":11921,"Ġclaimed":11922,"}'":11923,"integer":11924,"_tree":11925,"ĉcontinue":11926,"xi":11927,"Ġaccepted":11928,"_one":11929,"ĠEducation":11930,"ublished":11931,"gon":11932,"appoint":11933,"outs":11934,"Ġmining":11935,"Ġsongs":11936,"Ġherself":11937,"Ġgranted":11938,"Ġpassion":11939,"ĠLake":11940,"Ġloan":11941,"uent":11942,"chant":11943,"Ġdetailed":11944,"except":11945,"_cmd":11946,"ĠHE":11947,"Related":11948,"zt":11949,"'},Ċ":11950,"Ġspecifically":11951,"Static":11952,"Ġcarried":11953,"ANS":11954,"\\\":":11955,"Created":11956,"Ġcul":11957,"]-":11958,"_api":11959,"FP":11960,"Ġsitting":11961,"Ġ\"\")":11962,"ĉgoto":11963,"ĠEqu":11964,"Ġassault":11965,"kins":11966,"ancer":11967,"ogen":11968,"Ġvoters":11969,"ĠProt":11970,"Descriptor":11971,"ãĥ¼":11972,".Assert":11973,"bsites":11974,"oster":11975,"-menu":11976,"Ġarms":11977,".Client":11978,".background":11979,"avity":11980,"Ġvul":11981,"_MASK":11982,"Ġhousing":11983,"Ġbear":11984,"_iter":11985,"pired":11986,"Ġmarkets":11987,"ĠStudent":11988,"Ġticket":11989,"Ġmillions":11990,"flater":11991,")=":11992,"Ġrecover":11993,"ĠForce":11994,"ĠBoth":11995,"Ġvictim":11996,"ĠDisc":11997,"report":11998,"Ġfourth":11999,"ĠAssembly":12000,"/user":12001,"NullOr":12002,"textarea":12003,"Ġath":12004,"Ġ([":12005,"Ġchannels":12006,"ĠJustice":12007,"choice":12008,"LOBAL":12009,"exec":12010,"emale":12011,"Ġelem":12012,"_le":12013,"Ġresponsibility":12014,"ĠTw":12015,"ICATION":12016,"Ġelseif":12017,"Ġfo":12018,"asts":12019,"Ġtreated":12020,"sen":12021,"ĠVict":12022,"sumer":12023,"_BASE":12024,"Ġast":12025,">{{":12026,"ĠResource":12027,"ĠStandard":12028,"ĠPrem":12029,"updated":12030,"ivalent":12031,"Ġassets":12032,"_temp":12033,"Ġinterests":12034,"Ġhardware":12035,"ĠRom":12036,"ĠShare":12037,"Ġ''Ċ":12038,"Ġ*,":12039,"ĠTake":12040,"ĠImages":12041,"_CHECK":12042,"(typeof":12043,"ĠJun":12044,"\\<^":12045,"Ġliqu":12046,"Ġworst":12047,"ymbols":12048,"ĉĉĉĠĠĠ":12049,"Ġdrivers":12050,"ĠDocument":12051,"eno":12052,"ĠTechnology":12053,"Ġapproved":12054,"umps":12055,"Ġsnow":12056,"formance":12057,"_ASSERT":12058,"uits":12059,"207":12060,"ÙĨ":12061,"Ġdifferences":12062,".Visible":12063,"ĉĉĉčĊ":12064,"ĠPs":12065,"_fetch":12066,"Ġtodo":12067,".',Ċ":12068,"Ġsel":12069,"urers":12070,"invalid":12071,"Ġtweet":12072,"VEL":12073,"Ġresearchers":12074,"Ġsprintf":12075,"ĠRO":12076,"Ġpel":12077,".Trans":12078,"Ġillegal":12079,"dialog":12080,"smarty":12081,"lg":12082,"_MIN":12083,"Ġhero":12084,"final":12085,"Ġpp":12086,".Le":12087,"Ġci":12088,"ĉRT":12089,"Ġsuggested":12090,"pdf":12091,"aching":12092,"ĠRo":12093,"ĠProperties":12094,"ĠSi":12095,"Ġbuying":12096,"Ġmu":12097,"Ġlands":12098,"ifiers":12099,"ĠFILE":12100,"ROUP":12101,"Ġholder":12102,"ĠSon":12103,"Ġsympt":12104,".route":12105,")?":12106,"Ġargc":12107,"Ġfort":12108,"Ġcasino":12109,"_category":12110,"Ġforum":12111,"215":12112,"prefix":12113,"apture":12114,"Tube":12115,"ems":12116,"imize":12117,"Ġnue":12118,"aus":12119,"course":12120,"ATOR":12121,"()),":12122,"Advertis":12123,"INGS":12124,"Ġacknow":12125,"ĠKorea":12126,"pling":12127,"Ġworker":12128,"PLIED":12129,"hal":12130,"ĠRichard":12131,"Elements":12132,"ĉĉĉĠ":12133,"star":12134,"Ġrelationships":12135,"Ġcheap":12136,"ACH":12137,"ĠXML":12138,",&":12139,"ĠLouis":12140,"Ġride":12141,"_FAIL":12142,"Ġchunk":12143,"[s":12144,"_OUT":12145,"Ġchosen":12146,"_[":12147,"/(":12148,"ĠJeff":12149,"_sl":12150,"priv":12151,"ĠCanadian":12152,"Ġunable":12153,"_FLAG":12154,"Ġnos":12155,"high":12156,"Ġlift":12157,"fun":12158,"(){":12159,"elly":12160,"yclerView":12161,"_as":12162,"_LIST":12163,"Ġradi":12164,".getValue":12165,"304":12166,"ĠAngeles":12167,"ĠSpan":12168,"_instance":12169,"itors":12170,"208":12171,"Ġmigration":12172,"AK":12173,"Oh":12174,"Â®":12175,".selected":12176,"ĠGT":12177,"Ġadvance":12178,"ĠStyle":12179,".DataGridView":12180,"ection":12181,"Ñİ":12182,"pio":12183,"rog":12184,"Ġshopping":12185,"ĠRect":12186,"Illuminate":12187,"OU":12188,"ĉarray":12189,"Ġsubstantial":12190,"Ġpregn":12191,"Ġpromote":12192,"IEW":12193,".Layout":12194,"Ġsigns":12195,"/.":12196,"Ġletters":12197,"Board":12198,"ctrl":12199,"\"\\":12200,"ĠJones":12201,"Ġvertex":12202,"Ġja":12203,"Ġaffili":12204,"Ġwealth":12205,"ĉdefault":12206,"Ġsignificantly":12207,"Ġec":12208,"Ġxs":12209,"actual":12210,".per":12211,"_step":12212,"anvas":12213,"mac":12214,"Ġtransl":12215,"ĠĠĠĠĠĠĠĠĠĠĠĠĠĠĠĠĠĠĠĠĠĠĠĠĠĠĠĠĠĠĠĠĠĠĠĠĠĠĠĠĠĠĠĠĠĠĠĠĠĠĠĠĠĠĠĠĠĠĠ":12216,"Iterator":12217,"Ġoch":12218,"agnostic":12219,"ĠDuring":12220,"ĠDEFAULT":12221,"Ġtill":12222,"Ġsignature":12223,"Ġbird":12224,"ĠOl":12225,"310":12226,"ĠIr":12227,"HS":12228,"avatar":12229,"ESSAGE":12230,"Ġelev":12231,"Ġmt":12232,"ĠNav":12233,"Ġrelax":12234,"Ġplate":12235,"ITEM":12236,"(date":12237,".not":12238,"Ġgrade":12239,"Ġ}),Ċ":12240,"?\"ĊĊ":12241,"iences":12242,"High":12243,"ĠDIS":12244,"231":12245,"disabled":12246,"QUI":12247,"Ġnoise":12248,"aux":12249,"ĠUP":12250,"888":12251,"osa":12252,"Ġvoc":12253,"Ġ))":12254,"ocom":12255,"_OFF":12256,"ĠDb":12257,"Lock":12258,".eclipse":12259,",d":12260,"ĠDraw":12261,"Ġ\"(":12262,"Ġvisited":12263,"ĠâĪ":12264,"Ġsucceed":12265,"Ġimpossible":12266,"aire":12267,"ĠTurn":12268,"Ġdish":12269,"FG":12270,"Ġsensor":12271,"ANN":12272,"aba":12273,"Ġsurg":12274,"]);čĊ":12275,"Ġfp":12276,"_an":12277,"-J":12278,"-G":12279,"ĠJob":12280,"Convert":12281,"ĠKEY":12282,"Ġauthors":12283,"_server":12284,"\\r":12285,"Ġ-*-":12286,"flex":12287,"Ġsoc":12288,"Ret":12289,"Ġsalt":12290,"ĠâĢ¦ĊĊ":12291,"ĠClear":12292,"(page":12293,"-danger":12294,"Ġrooms":12295,"conv":12296,"#{":12297,".op":12298,"ĠArea":12299,"_SC":12300,"hen":12301,"Ġbegins":12302,"-y":12303,"Ġexcited":12304,"Ġignored":12305,"Ġbonus":12306,"student":12307,"ĠMember":12308,"Ġrelatively":12309,"ĠLow":12310,"ĠProdu":12311,"ateway":12312,"posure":12313,"Ġthick":12314,"aniel":12315,"(view":12316,"ĠCrush":12317,"Extension":12318,"Il":12319,"eed":12320,"LOC":12321,".im":12322,".Items":12323,"Ġconflict":12324,".prevent":12325,"252":12326,"ĠonCreate":12327,"uv":12328,"iser":12329,"Ġwave":12330,"Mar":12331,"ĠCommunity":12332,"iche":12333,"ĠNothing":12334,"[m":12335,"ĠLee":12336,"riends":12337,"232":12338,"Ã¨re":12339,"!!!":12340,"anz":12341,".result":12342,"ĠSK":12343,"_PARAM":12344,"Ġdemocr":12345,"BackColor":12346,".exists":12347,"\"It":12348,"(options":12349,"razy":12350,"aser":12351,"\\Database":12352,"alendar":12353,"_ass":12354,";}Ċ":12355,"vertex":12356,"inecraft":12357,"Warning":12358,"argo":12359,"Ġactor":12360,"ĠInstead":12361,"ĠUsing":12362,"Self":12363,"@interface":12364,"Ġspeaking":12365,"ĠParis":12366,"ĠLICENSE":12367,".node":12368,"ĠFood":12369,"EIF":12370,"ĠBi":12371,".Start":12372,"ĠIB":12373,"Ġuniversity":12374,"254":12375,"ĠHeader":12376,".product":12377,"409":12378,"Copy":12379,"etc":12380,"rical":12381,"Ġ>>>":12382,"books":12383,"Ġalgorithm":12384,"Ġ'__":12385,"(javax":12386,"Ġnumerous":12387,"Share":12388,"Have":12389,"Ġrecru":12390,"Ġprove":12391,".substring":12392,"health":12393,"ÐµÐ»":12394,"Ġdecimal":12395,"Ġcommission":12396,"scription":12397,"xC":12398,"Ġsummary":12399,"atted":12400,"Ġcloser":12401,"finished":12402,"()){Ċ":12403,"ĠWood":12404,"301":12405,"_fields":12406,"ku":12407,"_items":12408,"Flag":12409,"Ġconfidence":12410,"ĠFederal":12411,"dux":12412,"Ġcompat":12413,"Ġvertical":12414,"Ð¹":12415,"Ã¨s":12416,";\">Ċ":12417,"_manager":12418,"()))Ċ":12419,"IDE":12420,":\",":12421,"235":12422,"__Ċ":12423,"ĠWay":12424,"221":12425,"ÑĪ":12426,"Temp":12427,"ĠSTR":12428,"ritten":12429,"Sync":12430,"ĠAV":12431,"ĠCEO":12432,"ĠGuid":12433,"Ġenvironmental":12434,"Ġcorresponding":12435,"ĉconsole":12436,"Ġjustice":12437,"ĠJS":12438,"Ġlived":12439,"gar":12440,"ĠGraph":12441,"ĠStat":12442,"ĠiPhone":12443,".al":12444,"ĠHD":12445,"Ġoccur":12446,"Ġthreshold":12447,"509":12448,"Ġonclick":12449,"REG":12450,".GraphicsUnit":12451,"Meta":12452,"Å¾":12453,"Ġcum":12454,".gnu":12455,"Ã«":12456,"Ġobtained":12457,"Ġcomplaint":12458,"Ġeating":12459,"Ġtar":12460,"_task":12461,"Ġopts":12462,"216":12463,"(to":12464,"Pass":12465,"Ġplastic":12466,"tility":12467,"ĠWin":12468,".preventDefault":12469,"pile":12470,"ĠGar":12471,"Ġquantity":12472,"_last":12473,"Ġgreatest":12474,"Dao":12475,"_DIS":12476,"ĠUsed":12477,"ĠHP":12478,"riting":12479,"SION":12480,"blue":12481,"domain":12482,"Ġscores":12483,"Normal":12484,"_admin":12485,"ĠASSERT":12486,"Then":12487,"***":12488,"dist":12489,"lon":12490,"Ġhate":12491,"shal":12492,"ImageView":12493,"database":12494,"Ġpand":12495,"Ġlogic":12496,"=false":12497,"bg":12498,"ĠConfiguration":12499,"Ġnur":12500,"OG":12501,"Ġmarried":12502,":+":12503,"Ġdropped":12504,"040":12505,"Ġregistration":12506,"Ð¾Ð¼":12507,"ultiple":12508,"izers":12509,"shape":12510,".copy":12511,"Ġwearing":12512,"ĠCath":12513,"Ġdedicated":12514,"Ġ...Ċ":12515,"Ġadvoc":12516,"ĠFamily":12517,"Ġstatements":12518,"ematic":12519,"ampionship":12520,"Ġmotiv":12521,"ĠHave":12522,"Ġblow":12523,"Job":12524,"cert":12525,"_vector":12526,"install":12527,"ĠCOPY":12528,"embed":12529,"DIR":12530,"ĠSpring":12531,"Ġexhib":12532,"223":12533,"cdn":12534,"ĠComment":12535,"ĠOptional":12536,".player":12537,"ĠDark":12538,"(pos":12539,"ĠShould":12540,"Ġcentre":12541,"ĠGuard":12542,"Ã³w":12543,"Ġtrouble":12544,"ENER":12545,"(unsigned":12546,"_service":12547,"Ġns":12548,"uling":12549,"ĠMexico":12550,"ĠNY":12551,"mysql":12552,"Ġlic":12553,"åľ":12554,"Mr":12555,"-fl":12556,"ĠCustomer":12557,"idi":12558,"Ġ?>ĊĊ":12559,"rible":12560,"ĠÐ¿ÑĢ":12561,"Ġsizes":12562,"_STRING":12563,"validation":12564,"ĠJon":12565,"(Http":12566,"addClass":12567,"Nodes":12568,"Ġfragment":12569,"Ġspoke":12570,"Ġwaste":12571,"Join":12572,"Ġillustr":12573,"eli":12574,"cient":12575,"Ġaid":12576,"Ġprosec":12577,"'){Ċ":12578,"Ġpassing":12579,"Ġfaces":12580,"Shape":12581,"_Z":12582,"iti":12583,"Ġalle":12584,"Ġrobot":12585,"ĠĠĠĠĠĠĠĊ":12586,"ĠSpe":12587,"Ġreceiving":12588,"ĠDetails":12589,"Ġ\")":12590,"mg":12591,"_REF":12592,"Ġcomparison":12593,"*,":12594,"ĠFound":12595,"_session":12596,"(U":12597,"/F":12598,"Ġxxx":12599,"Network":12600,"ders":12601,"Ġcapture":12602,"Ġcorre":12603,"ĠLtd":12604,"ĠAdv":12605,"[@":12606,"Ġclip":12607,"Mill":12608,"ĠProfile":12609,"Ġendif":12610,"Ġoblig":12611,"describe":12612,".element":12613,"riterion":12614,"LD":12615,"ered":12616,"Ġfavour":12617,"score":12618,"ĠFilter":12619,"attributes":12620,"Ġchecks":12621,"Inflater":12622,"ĠPlus":12623,"Ġscientific":12624,"Ġprivacy":12625,"Head":12626,"Ġfeat":12627,"Ġdegrees":12628,"ĠPale":12629,";\">":12630,"Ġfilms":12631,"ĠAudio":12632,"ĠTag":12633,"ĠEnergy":12634,"itar":12635,"parator":12636,"Ġfellow":12637,"Ġevt":12638,"ĠTri":12639,"ĠDAM":12640,"cloud":12641,"ĠPassword":12642,"ĠDemocrats":12643,"ĠAcad":12644,"$lang":12645,"Ġreb":12646,"())ĊĊ":12647,"Ð½Ñĭ":12648,"ĠBur":12649,"readcr":12650,"Ġhex":12651,"209":12652,"Console":12653,"ctl":12654,"ousel":12655,"ĠWilliam":12656,"Ġaz":12657,"_PORT":12658,"Ġpractices":12659,"Ġanywhere":12660,"ĠPosition":12661,"Ġ->Ċ":12662,"iams":12663,".username":12664,"placeholder":12665,"Ġoder":12666,"ĠSecretary":12667,"ĠiT":12668,"mond":12669,"events":12670,"?âĢĿ":12671,".Sub":12672,"Ġattached":12673,"ĠnÃ£o":12674,"Ġestate":12675,"365":12676,".action":12677,"Ġfigures":12678,"Ġ});čĊ":12679,"Ġsubscri":12680,".tag":12681,"nam":12682,".plot":12683,"noon":12684,"liament":12685,"Character":12686,".tab":12687,"Ġwinter":12688,"ĠVariable":12689,"Ġtrees":12690,"Ġproud":12691,"(V":12692,"_load":12693,"Ġhier":12694,"ĠEcon":12695,"Ġfd":12696,"Ġvictims":12697,"Rest":12698,"iana":12699,"Ġfake":12700,".Println":12701,"Ġstrlen":12702,"Ġsad":12703,"Ġble":12704,"Prot":12705,"Ġbuttons":12706,"Ġtelevision":12707,"Ġlogo":12708,"extension":12709,"ĉj":12710,"stein":12711,"aciones":12712,"Ġ\"\"\"ĊĊ":12713,"Ġsimp":12714,"Ġrecorded":12715,"Ġbrings":12716,"Ġprincipal":12717,"Ġfees":12718,"(source":12719,"kdir":12720,"Ġutils":12721,"Ġcorrectly":12722,"fil":12723,"Ġwel":12724,"Pair":12725,"-button":12726,"scale":12727,"verify":12728,"[c":12729,"Ġ---":12730,"Ġescape":12731,"ikes":12732,"LowerCase":12733,"ician":12734,"Ġchapter":12735,"ĠTYPE":12736,"Ġshadow":12737,"Ġawesome":12738,"WE":12739,"elif":12740,"Ġlambda":12741,"Ġdistinct":12742,"Ġbare":12743,"-off":12744,"Ġcolour":12745,".appendChild":12746,"olec":12747,"aga":12748,".fill":12749,"ĉsuper":12750,"Ġadj":12751,"(position":12752,".getItem":12753,"242":12754,"Short":12755,"Ġtotally":12756,"VD":12757,"ĠTre":12758,"_ep":12759,"vements":12760,"ĠSolution":12761,"Ġfundament":12762,"Follow":12763,"Ġfacility":12764,"Ġhappening":12765,"OF":12766,".textBox":12767,"Span":12768,"ĠÂ«":12769,"iden":12770,"Ġexceed":12771,"(parent":12772,"Ġcp":12773,"ç»":12774,"Ġhasn":12775,"Ġpri":12776,"Ġconsequ":12777,"nen":12778,"ĠINTO":12779,"Ignore":12780,"ĠFuture":12781,"Ġcarbon":12782,"ĠSteel":12783,"fmt":12784,"okie":12785,"Ġspl":12786,"(title":12787,"-info":12788,"Ġdeals":12789,"Ġfixture":12790,"ea":12791,"Div":12792,"Ġtested":12793,"_return":12794,")ĊĊĊĊ":12795,"upported":12796,"ĠCook":12797,"Ġpaying":12798,"ĠIll":12799,"Ġarrested":12800,"ĠPrime":12801,"_callback":12802,">,Ċ":12803,"driver":12804,"Once":12805,"abb":12806,"_bytes":12807,"ĠSets":12808,"(Object":12809,"Ġcc":12810,"Ġshell":12811,"alo":12812,");//":12813,"(log":12814,"264":12815,"ctors":12816,")</":12817,"Ġneighborhood":12818,"420":12819,"ailability":12820,"vol":12821,"Ġyouth":12822,"Ġtechniques":12823,"ĠSchema":12824,"uh":12825,"mente":12826,"Ġrepository":12827,"imm":12828,"Ġcookie":12829,"JS":12830,"ovies":12831,":{":12832,"Complete":12833,"Since":12834,"Ġlaugh":12835,"_BO":12836,"enable":12837,"ĠDoes":12838,"ĠWalk":12839,"what":12840,"kes":12841,"Ġmultip":12842,"iments":12843,"eur":12844,"Ġvictory":12845,"Generator":12846,"ĠMos":12847,"rovers":12848,"Ġcompute":12849,"Ġproviders":12850,"ĠMedic":12851,"LP":12852,"_CONFIG":12853,"Ġveter":12854,"sters":12855,"_window":12856,"umeric":12857,"ĉĉĉĉĉĊ":12858,".Response":12859,"Ġreplaced":12860,".root":12861,"-free":12862,"-container":12863,"Ġmatching":12864,"ĠEditor":12865,"=${":12866,"ĠSaf":12867,"Ġsind":12868,"(buffer":12869,"åĩ":12870,".edu":12871,")];Ċ":12872,"ĠNFL":12873,"aya":12874,"Ġdogs":12875,"Ġdesire":12876,"ĠMiddle":12877,"Cart":12878,"306":12879,"Theme":12880,"Ġmob":12881,"Ġdisplayed":12882,"igit":12883,"Ġadults":12884,"\"\"\"":12885,"Ġdelivered":12886,"visible":12887,"\":{Ċ":12888,"<<<":12889,"ĠGO":12890,"scroll":12891,"xE":12892,"Ġassigned":12893,"ĠBool":12894,"Ġwp":12895,"Ġcombat":12896,"ĠHaw":12897,".-":12898,"Ġsupporting":12899,".Content":12900,"345":12901,"ircraft":12902,"Ġspin":12903,"ĠCR":12904,".my":12905,"à¥":12906,"tpl":12907,"Ġspaces":12908,"?,":12909,"384":12910,"ĠSyria":12911,"Ġpatterns":12912,"-box":12913,"Ġframework":12914,"/%":12915,"(long":12916,"Ġteaching":12917,"ARNING":12918,"_keys":12919,"Ġtables":12920,"UNC":12921,"inations":12922,"-weight":12923,"radio":12924,"ĠPac":12925,".server":12926,".CharField":12927,"ring":12928,"Ġquote":12929,"anna":12930,"Ġwerden":12931,"Ġcream":12932,"Ġmachines":12933,"-k":12934,"375":12935,"Ġstim":12936,"ĠStock":12937,"rick":12938,"Ġimportance":12939,"rx":12940,"Ãµes":12941,"ÙĪ":12942,"Ġstroke":12943,"agra":12944,"Ġtaste":12945,"ĠDEBUG":12946,"Thanks":12947,"ĠRequired":12948,"ova":12949,"Media":12950,"ĠsiÄĻ":12951,"(base":12952,"posts":12953,"ĠfileName":12954,"Checked":12955,"Ġinterrupt":12956,"Ġ()Ċ":12957,"python":12958,"pair":12959,"Ġcircle":12960,"Ġiniti":12961,"_stream":12962,"Ġcompreh":12963,"learn":12964,"Public":12965,"Ġhumans":12966,"Ġbringing":12967,"ographic":12968,"_layer":12969,"-like":12970,"upportInitialize":12971,"idebar":12972,"Ġvotes":12973,"Ġdesired":12974,"Mask":12975,"Ġrelation":12976,".Instance":12977,"Help":12978,"Ġinspir":12979,"ĠMono":12980,"ViewModel":12981,"ometimes":12982,"ĠbackgroundColor":12983,"Ġrotation":12984,"Ġmari":12985,"/test":12986,"INSERT":12987,"Star":12988,"phy":12989,"Ids":12990,"_GET":12991,"Ġincreases":12992,"_close":12993,"233":12994,"_FORM":12995,"Ġ[âĢ¦]ĊĊ":12996,"aza":12997,"TEXT":12998,"ĠÃ¤":12999,"ĠVan":13000,"Ġlights":13001,"ĠGuide":13002,"Ġdates":13003,".Command":13004,"aman":13005,"Ġpaths":13006,".edit":13007,"ĉadd":13008,"dx":13009,"Ġreaction":13010,"ĠBeach":13011,".getMessage":13012,"Environment":13013,"interest":13014,"Ġminister":13015,"Ġreaders":13016,"ĉF":13017,"Ġdomestic":13018,"Ġfiled":13019,"City":13020,"Ġmapping":13021,"ĠDES":13022,"Ġrepair":13023,"tics":13024,"ixture":13025,"Ġnombre":13026,".ISupportInitialize":13027,"zo":13028,".IsNullOr":13029,"ĠCarolina":13030,"ĠDer":13031,"ĠEVENT":13032,"Ġgest":13033,"Ġhist":13034,"resources":13035,"Ġorphan":13036,".Are":13037,"ĠInvest":13038,"REFERRED":13039,".Logger":13040,"ĠRoman":13041,"Ġcultural":13042,"feature":13043,"pts":13044,"bt":13045,"Ġdot":13046,"Ġdiam":13047,"uspend":13048,"_access":13049,"(){čĊ":13050,"Ġsurprise":13051,"abil":13052,"Ġvirt":13053,"Ġbomb":13054,"aron":13055,"_IS":13056,"Ġvast":13057,"Real":13058,"epend":13059,"icted":13060,"Ġpicked":13061,"ĠFL":13062,"ĠRepublicans":13063,".zeros":13064,"Pressed":13065,"sup":13066,".Core":13067,"Microsoft":13068,"services":13069,"agic":13070,"iveness":13071,"Ġpdf":13072,"Ġroles":13073,"403":13074,"ras":13075,"Ġindustrial":13076,"Ġfacilities":13077,"245":13078,"è¡":13079,"Ġni":13080,"Ġba":13081,"Ġcls":13082,"ĉB":13083,"Customer":13084,"Ġimagine":13085,"Ġexports":13086,"OutputStream":13087,"Ġmad":13088,"(de":13089,"){ĊĊ":13090,"Ġfro":13091,"hus":13092,"Ġcommittee":13093,"ìĿ´":13094,",x":13095,"Ġdivision":13096,"(client":13097,"(java":13098,"optional":13099,".Equal":13100,"ĠPhys":13101,"ingu":13102,"033":13103,"720":13104,"Ġsync":13105,"ĠNa":13106,"}}</":13107,"OLUM":13108,"itÃ©":13109,"Ġidentifier":13110,"owed":13111,"Ġextent":13112,"Ġhur":13113,"VA":13114,"clar":13115,"Ġedges":13116,"Criteria":13117,"Ġindeed":13118,"inherit":13119,"ĠNight":13120,"302":13121,"Ġreporting":13122,"Ġencounter":13123,"Ġkinds":13124,"_pred":13125,"Ġconsidering":13126,".(":13127,"Ġprotein":13128,"Typ":13129,"gricult":13130,"ĠBall":13131,"@Component":13132,"ĠEss":13133,"ĠRub":13134,"802":13135,"ulp":13136,"ĠĠĠĠĠĠĠĠĠĠĠĠĠĠĠĠĠĠĠĠĠĠĠĠĠĠĠĠĠĠĠĠĠĠĠĠĠĠĠĠ":13137,"itud":13138,".attr":13139,"iente":13140,"Ġspell":13141,"ĠJoe":13142,"ENTER":13143,"_host":13144,"itan":13145,"Ġmatters":13146,"Ġemergency":13147,"uated":13148,"ĠChat":13149,"={'":13150,"contri":13151,"arker":13152,"æĪĲ":13153,"iper":13154,"Ġscheme":13155,"(stderr":13156,"Ġ*(":13157,"ceiver":13158,".column":13159,"Ġmarked":13160,"_ATTR":13161,"Ġbodies":13162,"ĠIMPLIED":13163,"Gap":13164,"ĠPOST":13165,"Ġcorporate":13166,"Ġdimension":13167,"Ġcontrast":13168,"erview":13169,"ĠERROR":13170,"Ġcapable":13171,"Ġadvertising":13172,"urchase":13173,"ĠPA":13174,"ĠFrancisco":13175,"Ġfacing":13176,"ãĢĮ":13177,"git":13178,"Ġbeer":13179,"Ġsky":13180,"download":13181,"ĠCur":13182,"mc":13183,"anny":13184,".floor":13185,"Ġcriteria":13186,"ĠparseInt":13187,"`,Ċ":13188,"Ġaspect":13189,"Ġbundle":13190,"Could":13191,"Ġtank":13192,"-id":13193,"Ġhurt":13194,"Ġbroadcast":13195,"OKEN":13196,"ownt":13197,"nullable":13198,"Cap":13199,"Ġalcohol":13200,"ĠColl":13201,"ĠHelper":13202,"ĠAf":13203,".method":13204,"Ġplanned":13205,"pler":13206,"ĠSite":13207,"Ġresc":13208,"oment":13209,"ĠJavaScript":13210,"SERVER":13211,"Ġrhs":13212,"eres":13213,"(\",":13214,"ifi":13215,".fields":13216,"Ġparking":13217,"Ġisland":13218,"Ġsister":13219,"_Ċ":13220,"Constraints":13221,"ĠAust":13222,"dim":13223,"_points":13224,"Ġgap":13225,"_active":13226,"Ġvoor":13227,"ĠPO":13228,"Bag":13229,"-scale":13230,"lambda":13231,".Dispose":13232,"rule":13233,"Ġowned":13234,"ĠMedical":13235,"303":13236,"entries":13237,"Ġsolar":13238,"Ġresulting":13239,"Ġestimated":13240,"Ġimproved":13241,"Duration":13242,"employee":13243,"$.":13244,"Actions":13245,"Like":13246,",(":13247,"(Request":13248,"%s":13249,".Open":13250,")\"Ċ":13251,"Ġpixel":13252,"Ġadapter":13253,"Ġrevenue":13254,"ogram":13255,"ĠLA":13256,"ĠMachine":13257,"ĠØ§":13258,"Ġfle":13259,"Ġbike":13260,"Insets":13261,"Ġdisp":13262,"Ġconsistent":13263,"aÃ§Ã£o":13264,"gender":13265,"ĠThose":13266,"perience":13267,".BackColor":13268,".play":13269,"Ġrush":13270,"Ġaxios":13271,"Ġneck":13272,"_mem":13273,".PREFERRED":13274,"_first":13275,"CB":13276,"ĠWidget":13277,"Ġseq":13278,"har":13279,"Ġhits":13280,"ĠâĤ¬":13281,"Ġcontained":13282,"rient":13283,"water":13284,"LOAD":13285,"ĠVirginia":13286,"ĠArm":13287,"Ġ./":13288,"Â»":13289,"_root":13290,"Ġassistance":13291,"[],":13292,"sync":13293,"Ġveget":13294,"escape":13295,"icer":13296,"boost":13297,"ĠFloat":13298,"-W":13299,"*/čĊ":13300,"*>":13301,"218":13302,"Ġ$(\".":13303,".pos":13304,"Ġboys":13305,"Ġwedding":13306,"Ġagents":13307,"=\"_":13308,"ĠArmy":13309,"Ġhint":13310,"vision":13311,"Ġtech":13312,"ĠConnect":13313,"Ġlegend":13314,"ĠBet":13315,".Base":13316,"Subject":13317,"Ġlit":13318,"Remove":13319,"Ġ\":":13320,"ĠFinal":13321,"pearance":13322,"ĠiTunes":13323,"Ġparticipants":13324,"ĠPython":13325,"Ġbusy":13326,"iel":13327,"vertices":13328,"ĠtemplateUrl":13329,"ĠClose":13330,"Img":13331,"ĠCorporation":13332,"timestamp":13333,"Ġextend":13334,"Ġwebsites":13335,"Ġpossibility":13336,"Ð¾ÑĤ":13337,"ĠkÃ¶":13338,"Ġmeat":13339,"Ġrepresentation":13340,"241":13341,"Ġĉĉ":13342,"_START":13343,".apply":13344,"ĠValley":13345,"ĠSuccess":13346,"Hi":13347,"Ġnob":13348,"ĠIEnumerable":13349,"_select":13350,"geo":13351,".\")Ċ":13352,"Ġturning":13353,"Ġfabric":13354,"(\"\");Ċ":13355,"Ġperspective":13356,"éĹ":13357,"ĠSn":13358,"Thank":13359,";j":13360,".Parameters":13361,"ĉĠĠĠĠĠĠĠĠĠĠĠ":13362,"Ġfacts":13363,"305":13364,"Ġunt":13365,".instance":13366,"################################################################":13367,"-end":13368,"ĠJOIN":13369,"ĠHen":13370,"Ġuri":13371,"åĲį":13372,"ĠÐ½Ð°":13373,"ĠInfo":13374,"Ġconducted":13375,"ĠÃ¥":13376,"OURCE":13377,"Ġwine":13378,"John":13379,".Errorf":13380,"ĠAge":13381,"ounded":13382,"Ġrealize":13383,"312":13384,"Ġ];":13385,"Ġsubsequ":13386,",m":13387,"(User":13388,"iano":13389,"Ġaccompl":13390,"isp":13391,".std":13392,"éĩ":13393,"ĠBed":13394,".setAttribute":13395,"BR":13396,"keep":13397,"ĠALL":13398,"Ġisol":13399,"amma":13400,"Package":13401,"Ġoccasion":13402,"-success":13403,"ÐµÐ´":13404,"ĠLIMITED":13405,"strip":13406,"()ĊĊĊ":13407,"istribution":13408,"Colors":13409,"Ġ+:+":13410,"DidLoad":13411,"aler":13412,"Ġtid":13413,"ĠLED":13414,"ĠLinked":13415,"ĠCart":13416,"())čĊ":13417,"_READ":13418,"Ġkilling":13419,"ĠPHP":13420,"fection":13421,"Ġinstances":13422,"cv":13423,"\"/>":13424,"Ġsf":13425,"Ġtaxes":13426,"_location":13427,"ĠBitcoin":13428,"uable":13429,"rank":13430,"ignore":13431,"track":13432,"ÐºÐ°":13433,"Ġshouldn":13434,"ĠOP":13435,"=>{Ċ":13436,"Ġkm":13437,"Ġhelper":13438,"_head":13439,"ĠWhether":13440,"oco":13441,"_bl":13442,"Ġstatistics":13443,"Ġbeauty":13444,"Ġtog":13445,"tip":13446,"ëĭ¤":13447,"Ġcsv":13448,"(sql":13449,"stdlib":13450,"weak":13451,"Ġlikes":13452,"Äį":13453,"Ġrepeat":13454,"Ġapartment":13455,"Ġemph":13456,"_edit":13457,"Ġvit":13458,"ĉtype":13459,"217":13460,"Even":13461,"uten":13462,"Ġcircumstances":13463,"bian":13464,"Ġsugar":13465,"Windows":13466,"ìŀ":13467,"Ġobserved":13468,"/data":13469,"Ġcalendar":13470,"Ġstrike":13471,"ĠRES":13472,"_sc":13473,"fony":13474,"orem":13475,"(z":13476,"power":13477,"etect":13478,"ĠSat":13479,".description":13480,"Ġgang":13481,"ĠSports":13482,"ongs":13483,"ĠBundle":13484,".sum":13485,"once":13486,"Ġaccused":13487,"Ġexplore":13488,"Ġapproximately":13489,"Ġlosing":13490,"thesis":13491,"ĠFund":13492,"Ġdiagn":13493,"Autowired":13494,"properties":13495,"Ġ_.":13496,"Ġcnt":13497,"cedure":13498,"Ġyy":13499,"Ġgrant":13500,"sock":13501,".innerHTML":13502,"Ġ]);Ċ":13503,"ĠCONFIG":13504,"='$":13505,"550":13506,"]];Ċ":13507,"UND":13508,"Ġglob":13509,"Ġdire":13510,"uffle":13511,"_MEM":13512,"Ġauthentic":13513,">(\"":13514,"Ġdecade":13515,"ĠImport":13516,"Ġoriginally":13517,"ĠjQuery":13518,"Ġindicate":13519,"Ġourselves":13520,"Sw":13521,".lbl":13522,"enerate":13523,"Ġbasically":13524,"ĠHom":13525,"Ġ+#+":13526,"ĠBritain":13527,"ĠKar":13528,"toEqual":13529,".stop":13530,"Ġmodal":13531,"isi":13532,"Ġsuggests":13533,"Ġdtype":13534,"Ġtur":13535,"bf":13536,"Ġconnections":13537,"ĠBefore":13538,"isted":13539,"mouse":13540,"Ġpulled":13541,".build":13542,"Ġlegislation":13543,"Ġforth":13544,"pad":13545,"ego":13546,".Now":13547,"Ġexciting":13548,"}ĊĊĊĊ":13549,"Ġcompr":13550,"Ġshares":13551,"Ġrig":13552,"green":13553,"_vec":13554,"Ġenumerate":13555,"Auto":13556,"icator":13557,"ĠRay":13558,"asse":13559,"Ġholiday":13560,"Ġnullable":13561,"gun":13562,"_details":13563,"Ġwrapper":13564,"seq":13565,"ĠYoung":13566,"juana":13567,"Ġ\"__":13568,"license":13569,"serve":13570,"^(":13571,"iders":13572,".Remove":13573,"ropdown":13574,"'S":13575,"pin":13576,"(token":13577,".Default":13578,"Ġreasonable":13579,"ampion":13580,"ĠSociety":13581,"Ġbei":13582,"erves":13583,"rad":13584,"ĠFox":13585,"_images":13586,"Ġwheel":13587,"')[":13588,"Ġcfg":13589,"(By":13590,"Constructor":13591,"Ġvary":13592,".swift":13593,"Ġproxy":13594,"ĉH":13595,"ĠAnother":13596,"ĠPen":13597,"Ġchecking":13598,"Ġjest":13599,"manager":13600,"Origin":13601,"ugs":13602,"oir":13603,"><!--":13604,"Ġexpressed":13605,"Ġmoder":13606,"Ġagencies":13607,"Ġih":13608,"-hidden":13609,"iously":13610,"ĠRod":13611,"Ġsole":13612,"Med":13613,".Any":13614,"Ġpc":13615,"bal":13616,"Example":13617,"ĠSale":13618,"Ġstrip":13619,"ĠComp":13620,"Ġpresidential":13621,"Most":13622,"putation":13623,"(ref":13624,"ĠFour":13625,"_filename":13626,"Ġenforcement":13627,"Ø¯":13628,"ĠGeorg":13629,"weights":13630,"/l":13631,"Ġaggress":13632,"Ġdrawing":13633,"andy":13634,"<I":13635,"-j":13636,"aka":13637,"href":13638,"Ġteachers":13639,"_Q":13640,"(it":13641,"ĠMB":13642,"Ġtemporary":13643,"irebase":13644,"stra":13645,"æĹ¶":13646,"è´":13647,"(label":13648,"oup":13649,"Ġtopics":13650,"Ġportion":13651,"idos":13652,"ĠJewish":13653,"Ġrecovery":13654,"650":13655,"Ġstands":13656,"#[":13657,"Ġafternoon":13658,"ĠArticle":13659,"_att":13660,"Ġexplan":13661,"ĠPak":13662,".setOnClickListener":13663,".children":13664,"Ġik":13665,"+(":13666,"lag":13667,"Ġdisk":13668,"Ġcontrovers":13669,"\">&":13670,"asp":13671,"Ġwie":13672,"ĠAustralian":13673,"ĠYouTube":13674,"Attr":13675,"contains":13676,"duce":13677,"ĠMatt":13678,"340":13679,"atern":13680,"Ġvolunte":13681,"Ġnewsp":13682,"VP":13683,"oltip":13684,"Ġdelegate":13685,"_meta":13686,"Ġaccurate":13687,"ĠExample":13688,"%,":13689,"ĠDaily":13690,"Ġcabin":13691,"ĠSW":13692,"Ġlimits":13693,"kip":13694,"Ġarmy":13695,"Ġending":13696,"Ġboss":13697,"ĠDialog":13698,"Also":13699,"=\"#\"":13700,"ordan":13701,"rowse":13702,"-min":13703,"Ġ\"&":13704,"_loc":13705,"UX":13706,"Ġdevelopers":13707,"Ġaccuracy":13708,"Ġmaintenance":13709,"Ġheav":13710,"Ġfilters":13711,".ToolStrip":13712,"Ġnarr":13713,"ĠEmp":13714,"ORDER":13715,"ĠMobile":13716,".Serial":13717,".output":13718,"244":13719,".col":13720,"Material":13721,"uma":13722,"Ġconsumers":13723,"shift":13724,"Ġpued":13725,"Ġmini":13726,"collection":13727,"Ġkan":13728,".center":13729,"History":13730,"Ġbench":13731,"());":13732,"itories":13733,"Ġcrowd":13734,"_call":13735,"Ġpowers":13736,"-E":13737,"Ġdismiss":13738,"Ġtalks":13739,"ĠChannel":13740,"forward":13741,"_control":13742,"/src":13743,"iest":13744,"************************":13745,"Ġbeta":13746,"(color":13747,"_OBJECT":13748,"ĠApi":13749,"Ġeffectively":13750,"Camera":13751,"sd":13752,"ussy":13753,"290":13754,"Dict":13755,"ĠEffect":13756,"ibilities":13757,"Ġreturning":13758,"ĠFar":13759,"Ġ'')":13760,"Ġmodules":13761,"219":13762,"ilation":13763,"Ġ(%":13764,"TRGL":13765,"Ġstorm":13766,"onna":13767,"ĠEXP":13768,"Ġspons":13769,"Ġdispl":13770,"ĠĠĠĠĠĠĠĠĠĠĠĠĠĠĠĠĠĠĠĠĠĠĠĠĠĠĠĠĠĠĠĠĠĠĠĠĠĠĠĠĠĠĠĠĠ":13771,"fall":13772,"åĮ":13773,"ignKey":13774,"_US":13775,"etrics":13776,"Ġhandles":13777,"TL":13778,"_amount":13779,"owa":13780,"brand":13781,"ĠTool":13782,"Ġusual":13783,".Z":13784,"crement":13785,"adium":13786,"stock":13787,"Ġserving":13788,"ĠBon":13789,"Ġlinear":13790,"ĠTarget":13791,"ĠRadio":13792,"HL":13793,"Shader":13794,"omatic":13795,"agues":13796,"inity":13797,"diff":13798,"_iterator":13799,"quot":13800,"Ġ,Ċ":13801,"callback":13802,"Ġsymptoms":13803,"[_":13804,"ĠBul":13805,"ĠFeb":13806,"undo":13807,"_account":13808,"Ġtypedef":13809,"Ð¸Ñģ":13810,"tras":13811,"UserId":13812,"ĠPenn":13813,"ĠSupreme":13814,"}>":13815,"userId":13816,"327":13817,"ĠKim":13818,"Ġga":13819,"Ġartists":13820,"å¸":13821,"ĠAbstract":13822,"okemon":13823,"Ġham":13824,"oval":13825,"Ġcha":13826,"aten":13827,"åĨ":13828,"Fixed":13829,"Ġvulner":13830,"ĠParameters":13831,"quantity":13832,".Clear":13833,"ServletRequest":13834,"Ġya":13835,"Ġsoul":13836,"080":13837,"transaction":13838,"Ġsolo":13839,"Ġpairs":13840,"æĶ":13841,"ĠGre":13842,"_word":13843,"ĠCC":13844,"Ġgi":13845,"zie":13846,"Ġscheduled":13847,"rotation":13848,"gypt":13849,"ulous":13850,"::_":13851,"ĠEll":13852,"<!":13853,"ĉĉĠĠ":13854,"lp":13855,"aha":13856,"Copyright":13857,"009":13858,"Ġdram":13859,"251":13860,"Ġdiagram":13861,"ĠMem":13862,"Ġgarden":13863,"Comp":13864,"Ġattempts":13865,"uffix":13866,">()":13867,"Ġphilosoph":13868,"_rel":13869,"å¼":13870,"Ġsv":13871,".second":13872,"anto":13873,".Json":13874,"ĠTele":13875,"_local":13876,"_send":13877,"Ġaspects":13878,"ìĹ":13879,"IBLE":13880,"Ġrail":13881,"Ġwidely":13882,"ashed":13883,"iar":13884,"inf":13885,"upper":13886,"django":13887,"_results":13888,"issing":13889,"Ġequivalent":13890,"OUND":13891,"Ġty":13892,"Ġpotentially":13893,"Advertisement":13894,"238":13895,"ĠRecord":13896,"380":13897,"resentation":13898,"_widget":13899,"ounding":13900,"Ġreligion":13901,"Ġconsc":13902,"ĠLim":13903,".am":13904,"Html":13905,"Ġ':":13906,"PATH":13907,"_spec":13908,"orted":13909,"idades":13910,"_shape":13911,"Ġkeeps":13912,".Save":13913,"ĠLoc":13914,"ori":13915,"ĠTEST":13916,"unicip":13917,"Ġregions":13918,"Ġbelieves":13919,"/en":13920,"posite":13921,"{'":13922,"prepare":13923,"_const":13924,"sample":13925,"ĠWilliams":13926,"Ġstrt":13927,"_Get":13928,"ĠAndrew":13929,".active":13930,"Ġlayers":13931,"VisualStyle":13932,"azy":13933,"ĠKn":13934,"Ġacid":13935,"ĠAsia":13936,"Ġexcess":13937,"ĉmy":13938,"Ġkeyboard":13939,"ensus":13940,"Ġcrew":13941,"Ġmissed":13942,"master":13943,"ĠWild":13944,"Ġnewly":13945,"Ġwinner":13946,"Ġstub":13947,"icode":13948,".move":13949,"Domain":13950,"ĠSar":13951,"Ġforest":13952,"LED":13953,"claimer":13954,".exit":13955,"ĠWindow":13956,"Ġresistance":13957,"ĠCHECK":13958,"(\"-":13959,"ĠRyan":13960,"Ġpipe":13961,"Ġcoast":13962,"DEF":13963,"//!":13964,"_off":13965,"exit":13966,"Ġultimately":13967,"imitive":13968,"ĠKeep":13969,"Ġhistorical":13970,"Ġanyway":13971,"ĠJackson":13972,"ocker":13973,"ERN":13974,"ĠUINT":13975,"yntax":13976,"ERY":13977,"isms":13978,"Ġcn":13979,"Ġoccurs":13980,"Ġ;;":13981,"TextView":13982,"AE":13983,"/img":13984,"Ġyesterday":13985,"-default":13986,"Ġtiny":13987,"Ġproc":13988,"Ġalive":13989,"ĠREG":13990,".th":13991,"earing":13992,".getLogger":13993,"<link":13994,"_login":13995,"Folder":13996,"abc":13997,"lyphicon":13998,"Ð½Ð¾":13999,"Ġnoticed":14000,"odigo":14001,"Ġedition":14002,"imator":14003,".Enabled":14004,".parseInt":14005,"Ġyards":14006,"ĉĉĉĉĉĉĉĉĉĉĉĉ":14007,"Ġverbose":14008,"Ð»Ñı":14009,"_BY":14010,".login":14011,".*;Ċ":14012,"ĠMid":14013,"Ã©es":14014,"Ġglo":14015,"Ġbuildings":14016,"Ġze":14017,"ĠIter":14018,"Ġtube":14019,"ĠPot":14020,"\\M":14021,"253":14022,"<th":14023,"bridge":14024,"ĠScript":14025,"ĠModule":14026,"Ġvacc":14027,"Ġinstallation":14028,"vy":14029,"VisualStyleBackColor":14030,"ĠSM":14031,".total":14032,"640":14033,"bat":14034,"Ġfinds":14035,"Ġatmos":14036,"Subview":14037,"izard":14038,"Ġreplacement":14039,"licated":14040,"apis":14041,"Ġlogged":14042,"ĠLeft":14043,"Gui":14044,"_Type":14045,"tm":14046,"Pad":14047,"Ġhousehold":14048,"Ġrele":14049,"Ġproposal":14050,"_CLASS":14051,"243":14052,"::::":14053,"Ġinfrastructure":14054,"Inject":14055,"/html":14056,"226":14057,"Ġads":14058,"izza":14059,"Ġmg":14060,"ctrine":14061,"%Ċ":14062,"<html":14063,"-image":14064,"Ġattorney":14065,"<m":14066,"(',":14067,"Ġcann":14068,"Ġprintln":14069,"oose":14070,"Ġyellow":14071,".exp":14072,"payment":14073,"ĠtableView":14074,"away":14075,"Ġopposition":14076,"ĠAgain":14077,"ĠHandle":14078,"Ġexclusive":14079,"inar":14080,"Ã©r":14081,"Ð¾Ð±":14082,"ĠCODE":14083,"emporary":14084,"Ġreact":14085,"pipe":14086,"236":14087,"cz":14088,".activity":14089,"Ġlargely":14090,"Ġdiss":14091,"axy":14092,"esis":14093,"ĠRen":14094,"Ġcorn":14095,".UseVisualStyleBackColor":14096,"days":14097,"Ġfruit":14098,"Insert":14099,"_enc":14100,"Est":14101,"_dec":14102,"ĠLuc":14103,"ĠÃ¼ber":14104,"parameters":14105,"PERT":14106,"express":14107,"_profile":14108,"Unknown":14109,"Ġrevolution":14110,".address":14111,"_require":14112,"Ġuniform":14113,"ĠPack":14114,"lar":14115,"ĠUITableView":14116,"Ġdepends":14117,"Validation":14118,"confirm":14119,"Owner":14120,"Ġtrib":14121,"het":14122,"ĠIde":14123,"ansas":14124,"247":14125,"Language":14126,"uet":14127,"ĠPo":14128,"ĠSteve":14129,"Ġcontest":14130,"_DEFAULT":14131,"Ġapparently":14132,"REEN":14133,"Ġfrequently":14134,"Ġtradition":14135,"ocolate":14136,"SI":14137,"ĠArgument":14138,"Focus":14139,"erte":14140,"ĠLayout":14141,"Ġdx":14142,"Ġgenerator":14143,"ĠWait":14144,"Policy":14145,"lights":14146,".Execute":14147,"555":14148,"Py":14149,"Ġbedroom":14150,"eda":14151,"raid":14152,"ĉsize":14153,"Ġancient":14154,"Ġpump":14155,"Ġdw":14156,"Ġ(!(":14157,"Ġspecify":14158,"(status":14159,"ĠFBI":14160,".exception":14161,"Ġremark":14162,"lymp":14163,"antee":14164,"Upload":14165,"ernet":14166,"é¡":14167,"inent":14168,"ĠRender":14169,"dm":14170,"ĠMemory":14171,"rich":14172,"ĠTools":14173,"Ġkne":14174,"Ġperm":14175,"bad":14176,"Ġdinner":14177,".reset":14178,"ĠjLabel":14179,"Feature":14180,".Service":14181,"Ġ({Ċ":14182,"Ġreferred":14183,".classList":14184,"248":14185,"ĠinitWith":14186,"ĠTextView":14187,"Ġneither":14188,"Ġcounty":14189,"Ġ\"{":14190,"ç§":14191,"Ġtack":14192,"className":14193,"ĠUSER":14194,"Ġrenew":14195,"``":14196,"getName":14197,"Ġbrown":14198,"Errors":14199,"erto":14200,"Ġsustain":14201,"SO":14202,"letes":14203,"ĠInvalid":14204,"246":14205,"227":14206,"Ġenemies":14207,"unge":14208,"Ġexistence":14209,"erra":14210,"ĊĠĠĊ":14211,"utorial":14212,"#a":14213,"pay":14214,"charge":14215,"ĠIre":14216,"atest":14217,"Ġexplos":14218,"Ġfired":14219,"NER":14220,"ĠTy":14221,"icion":14222,"Uri":14223,"Ġobviously":14224,"ĠColum":14225,"Ġ'+":14226,"ĠDevice":14227,"-related":14228,"_ARG":14229,"Ġvor":14230,"ĠLesser":14231,"_OP":14232,"Serializer":14233,"Ġupgrade":14234,"Light":14235,"Ġcodes":14236,"++;čĊ":14237,"Ġwrites":14238,"food":14239,"ĠÃ©t":14240,"@section":14241,"Ġtracks":14242,"Ġseriously":14243,"cht":14244,"430":14245,"(sizeof":14246,"Ġimmediate":14247,"Ġscientists":14248,"Ġ{$":14249,"_ne":14250,".AnchorStyles":14251,"Ġaccommod":14252,"ĠHarry":14253,"Ġsight":14254,"ĠPalest":14255,"ersistent":14256,"ĠÑĥ":14257,"-input":14258,"Ġcoordinates":14259,"Â·":14260,"228":14261,"Welcome":14262,".conf":14263,"Ġgrew":14264,"Ġbold":14265,"ĠCPU":14266,"(my":14267,"Ġperfectly":14268,"Ġmoments":14269,"ĠMovie":14270,"-data":14271,"ystal":14272,"_WIDTH":14273,"262":14274,"ĠScreen":14275,"æĿ":14276,"Ġdisap":14277,"Ġreduction":14278,".GetComponent":14279,"_MODULE":14280,"Ġgeneric":14281,"Ġdy":14282,"aller":14283,"Ġcurl":14284,"ĠBody":14285,"Ġbanks":14286,",t":14287,"avg":14288,"Ġevil":14289,"Ġmanufacturer":14290,"Ġreceiver":14291,"Columns":14292,"Ġingredients":14293,"ĉout":14294,"ques":14295,".Load":14296,"Ġslowly":14297,"ĠTown":14298,"ĠCell":14299,"_normal":14300,"_prefix":14301,"ĠAlert":14302,"(\"{":14303,"Ã¤r":14304,"âĢľThe":14305,"ĠMD":14306,"Ġcourses":14307,"athan":14308,"éĻ":14309,"occ":14310,"ĠSER":14311,"esign":14312,"Addr":14313,"=['":14314,"(\"./":14315,"]}":14316,".font":14317,"ĠInstagram":14318,"ĠBorder":14319,"oda":14320,"Ġhall":14321,"Ġrum":14322,"_bit":14323,"Ġsaving":14324,"_down":14325,"Random":14326,"_register":14327,"(Context":14328,"Ġopposite":14329,"Room":14330,"YES":14331,"Ð°Ð½Ð¸":14332,"Ġenjoyed":14333,"_run":14334,"Clear":14335,"âĢĺ":14336,"ĠFord":14337,"onic":14338,"osten":14339,"\"])":14340,"_auth":14341,"//čĊ":14342,"Ġsufficient":14343,"LES":14344,"Ġphen":14345,"Ġoh":14346,"_csv":14347,"Ġroutine":14348,".AreEqual":14349,"aylor":14350,"Ġbasket":14351,"_COMM":14352,"rypted":14353,"Sim":14354,"ĠShop":14355,"Ġstudio":14356,"atos":14357,"(W":14358,"[string":14359,"Ã¤t":14360,"oga":14361,"Ġshr":14362,"Ġsick":14363,"Another":14364,"Ġdoors":14365,"_NE":14366,"ĠTHREE":14367,".order":14368,"razil":14369,"Ġmaps":14370,"_TRUE":14371,"translate":14372,"Ġnearby":14373,"265":14374,"Ġnach":14375,"LOAT":14376,"batch":14377,"229":14378,"Ġlux":14379,"ashes":14380,"angers":14381,"âĢ¦âĢ¦":14382,"_EVENT":14383,"_UP":14384,"Ġacts":14385,"inv":14386,"_METHOD":14387,"ccion":14388,"Ġretain":14389,"utch":14390,"ĠÐ±":14391,"Ġknowing":14392,"Ġrepresenting":14393,"NOT":14394,"png":14395,"Contract":14396,"Ġtrick":14397,"ĠEdition":14398,"uplicate":14399,"Ġcontrolled":14400,"cfg":14401,"javascript":14402,"Ġmilk":14403,"White":14404,"Sequence":14405,"awa":14406,"Ġdiscussed":14407,"501":14408,"ĠBush":14409,"ĠYES":14410,".factory":14411,"tags":14412,"Ġtact":14413,"Ġsid":14414,"$$":14415,"ĠEnum":14416,"275":14417,"Ġframes":14418,"});":14419,"Ġregul":14420,"'];čĊ":14421,"Region":14422,"321":14423,"fff":14424,"Ġcro":14425,"(com":14426,"=\"+":14427,"Student":14428,"Ġdisappoint":14429,"RESULT":14430,"Counter":14431,"Ġbutter":14432,"ĠHa":14433,"ĠDigital":14434,"Ġbid":14435,"\">{{":14436,"ingers":14437,"ĠCountry":14438,"_tpl":14439,"\"])Ċ":14440,"/k":14441,"dating":14442,":#":14443,"ĠDATA":14444,"ynchron":14445,"_body":14446,"ollywood":14447,"Ġvalor":14448,"ipient":14449,"oft":14450,"UBL":14451,"docs":14452,"Ġsynchron":14453,"Ġformed":14454,"ruption":14455,"Ġlista":14456,"RequestMapping":14457,"Ġvillage":14458,"Ġknock":14459,"ocs":14460,"\"{":14461,"_flags":14462,"Ġtransactions":14463,"Ġhabit":14464,"ĠJe":14465,"eden":14466,"Ġaircraft":14467,"irk":14468,"ĠAB":14469,"Ġfairly":14470,".inter":14471,".Act":14472,"Ġinstrument":14473,"removeClass":14474,".command":14475,"Ñī":14476,"ĉmem":14477,"(min":14478,"Ġot":14479,"Ġcolle":14480,"=s":14481,"timeout":14482,"Ġids":14483,"ĠMatch":14484,"ijn":14485,"zero":14486,"410":14487,"Ġnetworks":14488,".gov":14489,"Ġintel":14490,"Ġsections":14491,"outine":14492,"(cmd":14493,"(dir":14494,"ĠLIABILITY":14495,"ĠBlog":14496,"Ġbridge":14497,"308":14498,"ĠCV":14499,"convert":14500,"Ġ\")Ċ":14501,"ĠBern":14502,"_PO":14503,"eval":14504,"(set":14505,"tool":14506,"Ġpayments":14507,"Behaviour":14508,"Ġconcrete":14509,"Ġelig":14510,"Ġacceler":14511,"Ġhole":14512,"_o":14513,"TEGER":14514,"Ġgraphics":14515,"Own":14516,"Formatter":14517,"onder":14518,"Ġpackages":14519,"/a":14520,"ĠKnow":14521,"OrDefault":14522,"Ġduty":14523,"Wait":14524,"Ð½Ð°":14525,"_record":14526,"[t":14527,"Mesh":14528,"Ġongoing":14529,".beans":14530,"Ġtan":14531,"Ġinterpret":14532,"asters":14533,"QUAL":14534,"Ġlegs":14535,"\\Request":14536,"-file":14537,"_mutex":14538,"ĠSaint":14539,"//#":14540,"Ġprohib":14541,"(info":14542,":=":14543,"linux":14544,"Ġblo":14545,"otic":14546,"ĉfinal":14547,"_exp":14548,"ĠStop":14549,"aping":14550,"(saved":14551,"_push":14552,"Ġease":14553,"_FR":14554,"ponsive":14555,"strcmp":14556,":ĊĊĊĊ":14557,"ä»¶":14558,"oli":14559,"Ġextreme":14560,"Ġprofessor":14561,"Images":14562,".IOException":14563,"Ġaddresses":14564,"plemented":14565,"Ġincorpor":14566,"ĠuseEffect":14567,"_OF":14568,"ĠDa":14569,"nombre":14570,"IRST":14571,"Ġdiscrim":14572,"Ġcompens":14573,"gregate":14574,"ancell":14575,"aches":14576,"ĠCriteria":14577,"$result":14578,"Destroy":14579,"Ġsecondary":14580,"Watch":14581,"ĠSem":14582,"ĠMcC":14583,"Ġacademic":14584,"Upper":14585,"::~":14586,"utral":14587,"ĠDog":14588,"aded":14589,"237":14590,"Validator":14591,"Ġderived":14592,"ĠsetTimeout":14593,"ĠKen":14594,"Ġtypical":14595,"ĠBob":14596,"Ġbounds":14597,"ĠSeason":14598,"Ġcrazy":14599,"ĠĠĠĠĠĠĠĠĠĠĠĠĠĠĠĠĠĠĠĠĠĠĠĠĠĠĠĠĠĠĠĠĠĠĠĠĠĠĠĠĠĠ":14600,"-router":14601,"ittest":14602,"ĠMir":14603,"Ġemotional":14604,",v":14605,"cn":14606,"/st":14607,"å½":14608,"onom":14609,"Ġdeclared":14610,">.":14611,"ailing":14612,"Ġ/*<<<":14613,"Ġnormally":14614,"(Me":14615,"evin":14616,"likely":14617,"Ġpointed":14618,"ĠStack":14619,"Ġwalls":14620,".Vector":14621,"mean":14622,"]]Ċ":14623,"Ġlistening":14624,"adv":14625,"Ġswap":14626,"IFT":14627,"Øª":14628,".argv":14629,"uls":14630,"<option":14631,"notations":14632,"Ġemails":14633,"ĠUkr":14634,"asta":14635,"ĠThus":14636,"ĠStone":14637,"Ġappeal":14638,".âĢĻ":14639,"Ġregulations":14640,"Preferences":14641,"ĠPhone":14642,"ulf":14643,"ĠDR":14644,"Ġtechnologies":14645,"Ġparagraph":14646,"Ġnecessarily":14647,"370":14648,"030":14649,".each":14650,"<float":14651,"resa":14652,"Ġunderst":14653,"Ġfinger":14654,"pressed":14655,"-by":14656,"iffer":14657,"watch":14658,"ĠBa":14659,"AIM":14660,"Ġweights":14661,"ĠRon":14662,"')}}":14663,"[self":14664,"----------Ċ":14665,"periment":14666,"ĠtoString":14667,"xic":14668,"ĠCamera":14669,"!ĊĊĊĊ":14670,"aurant":14671,"Prefix":14672,"Ġinstitutions":14673,":int":14674,"Ġexposure":14675,"pattern":14676,"ĠLinux":14677,".number":14678,"redient":14679,"ArgumentException":14680,"ĠChief":14681,"\"},":14682,"Ġelectronic":14683,"rong":14684,"erd":14685,"spNet":14686,"rait":14687,"/',":14688,"ĠOhio":14689,"Controllers":14690,"Ġcontinuing":14691,"ĠTemplate":14692,"ĠEth":14693,"sz":14694,"/env":14695,"Env":14696,"%.":14697,"arters":14698,")((":14699,"ĠTABLE":14700,"ĠÃ®":14701,"perature":14702,"progress":14703,"Pres":14704,"ê°":14705,
[...]
